#version: 0.2
Ġ t
h e
Ġ a
Ġ s
Ġ w
n d
Ġt he
e d
Ġ b
Ġt o
Ġa nd
Ġ h
Ġ f
Ġ T
i n
Ġw a
r e
i t
o u
Ġ l
Ġ d
Ġ c
Ġ p
a y
Ġ m
e r
Ġwa s
ĠT he
o m
Ġ he
i s
Ġ n
i m
a r
o n
Ġs a
l l
i d
Ġh a
Ġ g
a t
Ġ S
in g
o t
e n
a n
l e
o r
e nd
i r
o f
a m
e t
Ġ H
Ġ it
Ġt h
i g
ĠThe y
Ġp l
Ġ in
i l
ĠH e
Ġ "
o w
v er
r i
Ġ u
u t
Ġpl ay
it h
Ġsa id
Ġb e
Ġd ay
Ġw ith
p p
O n
Ġ y
k ed
o o
Ġ r
Ġhe r
e x
c e
l d
Ġh is
ĠT im
Ġ I
ĠS he
Ġs t
k e
Ġb ig
n t
c k
ver y
Ġy ou
s t
v e
u n
Ġha pp
Ġ on
a ll
ri end
Ġf riend
ex t
Ġthe y
of t
Ġ L
il y
Ġw e
Ġha d
Ġu p
Ġl i
Ġn ot
he r
Ġwa nt
it t
Ġ of
< |
| >
end oft
endoft ext
a d
Ġd o
Ġ B
Ġ e
s e
Ġhapp y
en t
Ġ very
Ġ M
e s
Ġsa w
On e
Ġth at
ou ld
' s
Ġf or
itt le
Ġm om
Ġl ittle
Ġs h
Ġs he
im e
c h
Ġn am
Ġt ime
Ġ k
Ġs o
ou nd
. "
Ġthe re
Ġnam ed
Ġb o
Ġs m
Ġwe re
Ġwant ed
ĠL ily
Ġn e
Ġfriend s
ou t
ir d
Ġb ut
v ed
h t
! "
T he
ĠT om
Ġb ird
e l
a ke
Ġa n
a l
Ġto o
om e
Ġw ent
Ġw h
id e
On ce
Ġa ll
ĠI t
Ġhe l
u g
u e
Ġhel p
Ġ is
Ġl oo
Ġ A
Ġup on
Ġl o
t er
r y
Ġto y
o re
Ġf un
i nd
g et
i ll
am e
Ġa s
Ġ j
r a
Ġa t
get her
Ġ o
Ġc at
Ġd id
Ġ re
u r
Ġto gether
a ck
Ġs e
l y
Ġt re
oo d
Ġdo g
i c
Ġc ould
t ed
Ġc an
Ġb all
ar d
Ġg ir
Ġthe ir
ar k
Ġgir l
Ġplay ed
e c
m y
Ġh im
Ġr o
Ġg o
w ay
? "
he d
a in
Ġk n
Ġl e
Ġ out
he n
Ġa re
Ġf r
u m
' t
Ġthe m
Ġbo y
Ġsa d
u l
a x
Ġtre e
ot her
ou g
Ġm an
Ġlo ved
Ġha ve
Ġc l
Ġf ound
Ġloo ked
Ġs p
ĠS ue
Ġst ar
Ġs c
on e
Ġb ack
ow n
h ing
a re
ĠM ax
Ġli ke
Ġbe c
s ide
f ul
Ġm e
o p
on g
Ġp ark
Ġw ould
ig ht
Ġli ked
r ound
Ġ One
el t
Ġf a
Ġc ar
Ġm ake
e ll
ĠB ut
Ġf elt
Ġl a
Ġ W
Ġas ked
ĠS am
Y ou
ar ed
om et
i ce
Ġc ame
Ġne w
Ġstar ted
a g
Ġse e
Ġn o
oug ht
ou se
ĠB en
Ġa l
il ed
Ġa g
Ġ other
Ġg ood
p ot
Ġ Ċ
Ġs omet
Ġsm all
Ġb r
o b
s s
Ġsm iled
ad e
ri ed
ing s
Ġs ay
Ġf ind
Ġw or
Ġa way
Ġfr om
Ġth ought
Ġm ade
ĠS pot
Ġwh at
Ġ ex
Ġh ome
Ġplay ing
en ed
Ġsomet hing
t y
Ġp ut
Ġe very
Ġwa l
Ġc o
a ch
Ġm u
i a
u c
oo k
i e
n y
Ġ F
Ġag ain
Ġr an
Ġd own
i le
d d
ar n
Ġtoy s
a ve
Ġp r
k ing
Ġsc ared
Ġs ome
Ġtoo k
Ġla ug
Ġ J
Ġh ouse
Ġf l
i f
a b
Ġa round
Ġbo x
Ġs w
u re
i ck
Ġle arn
e p
re t
is h
ou d
u ck
Ġyou r
Ġli ved
Ġ You
Ġth ings
Ġs un
Ġthe n
Ġw ill
e w
Ġb l
Ġm y
a s
Ġw hen
Ġa b
pp ed
, "
u s
Ġg et
an k
T im
T h
Ġc h
Ġl ot
uc y
ot h
a p
um p
ĠM ia
Ġwh o
Ġt ried
is t
Ġf e
Ġkn ow
Ġg ot
it ed
u st
Ġman y
Ġab out
Ġsay s
Ġin t
all y
nd er
Ġr ed
Ġkn ew
Ġp ret
i ve
Ġd ec
L ily
is e
ou s
Ġan y
a u
Ġ D
a ce
Ġc are
Ġm ore
Ġp ic
q u
Ġbe st
au se
Ġo p
f ter
Ġbec ame
ĠL ucy
Ġp o
Ġwa ter
way s
â Ģ
f e
Ġh ug
Ġlearn ed
ĠB ob
Ġex c
Ġbec ause
it e
Ġal ways
Ġloo k
Ġ v
Ġout side
Ġint o
Ġro om
Ġb oth
Ġu n
id ed
Ġsh ow
Ġlaug hed
ĠS o
Ġe at
Ġdec ided
ĠA nd
Ġh o
Ġg re
ur p
u dd
an t
Ġp e
er s
Ġ E
ĠM om
Ġj ump
n n
Ġl ong
Ġon e
Ġ ke
Ġth is
Ġn ice
Ġr un
Y es
Ġexc ited
Ġfa st
The y
T om
Ġfe el
Ġd ad
Ġto ld
Ġm o
Ġs k
Ġin side
ou r
Ġa m
Ġt r
Ġs l
u ll
le w
Ġs or
Ġt ake
urp r
Ġro ck
in y
Ġpret ty
nn a
Ġs urpr
Ġg ave
Ġe ach
Ġg ra
im al
in k
Ġan imal
Ġmu ch
Ġh ow
W h
Ġst r
Ġo ld
Ġne ed
B ut
Ġth an
Ġl et
v en
ar a
r o
g ed
Ġto w
es s
Ġu nder
Ġ C
Ġsor ry
Ġ or
Ġwal ked
Ġc le
a nd
Ġt a
Ġha nd
g e
is ed
o g
Ġf ish
ur n
Ġt e
ur t
Ġk ind
f f
Ġcl o
ĠH is
Ġwa t
v ing
Ġh ig
Ġanimal s
a se
ĠA my
Ġj ust
Ġu s
Ġhapp ened
c hed
Ġf ood
p l
Ġfl ow
Ġsk y
he re
Ġs n
r om
Ġ ide
Ġt ry
Ġl ist
ĠW e
Ġne ar
g ry
Ġdid n
Ġide a
Ġb et
Ġ en
ab le
at e
in e
Ġf i
Ġf lew
ec i
Ġit s
re am
Th ank
Ġcare ful
Ġsh are
Ġc ake
Ġhe ard
Ġbet ter
Ġt w
Ġst or
Ġ if
Ġsp eci
Ġspeci al
Ġd an
p ec
b er
i on
ĠT h
Ġbe ar
Ġlot s
Ġw ind
l f
m ore
Ġany more
udd en
Ġcle an
Ġne ver
Ġf o
Ġd on
M om
Ġg r
Ġb ug
Ġt al
op le
Ġc om
Ġh ard
Ġb u
Ġ end
ĠThe n
Ġb y
Ġf ly
udden ly
Ġm ag
or t
Ġt urn
Ġf ore
Ġo ver
ĠA nna
ĠE very
Ġe ven
r m
Ġlo ve
Ġco l
Ġsa fe
Ġpe ople
Ġa fter
Ġb ad
ad y
Ġhig h
Ġf am
Ġg round
a k
Ġdo or
im b
Ġc ome
b b
Ġsh iny
Ġpr oud
A s
Ġcl imb
Ġop ened
u ff
Ġh urt
Ġpic ked
Ġbl ue
Ġl oud
pec ted
L et
Ġc he
Ġg ive
Ġwa y
Ġsurpr ised
Ġg l
' m
ex pected
Ġun expected
il d
Ġthan ked
Ġc u
Ġb ook
um my
ĠW hen
ĠF rom
Ġc all
Ġcol or
ĠH er
Ġf ar
ard en
Ġg arden
Ġe ver
Ġmag ic
Ġ K
Ġp ar
oug h
k ay
Ġ im
Ġhug ged
Ġst ill
Ġpl ace
N o
Ġu nt
oo l
ĠS ara
Ġof f
ag e
Ġm a
Ġsm ile
Ġwal k
Ġ P
Ġjump ed
Ġfam ily
ĠI n
Ġunt il
i z
un ny
t ure
he s
Ġp a
e m
Ġsh ould
Ġ qu
Ġn ow
i p
Ġk id
c t
Ġst ick
itt y
Ġst ay
Ġstr ong
Ġfore st
Ġst o
an e
Ġd ra
a ut
Ġa pp
uff y
d y
Ġbr o
Ġbo at
Ġgre at
Ġs qu
Ġb ra
Ġbe aut
Ġt ra
Ġn ext
Ġhelp ed
Ġj o
ĠS ally
le ase
Ġha t
le s
Ġhapp ily
Ġpic ture
Ġstor y
i ful
i es
Ġbeaut iful
Ġlist en
n ing
t h
Ġshow ed
Ġwh ile
Ġcall ed
o on
Ġm et
Ġclo s
N ow
Ġkid s
p t
Ġop en
Ġfr og
Ġs oft
Ġm or
Ġre m
l uffy
Ġtow n
Ġevery one
C an
I t
g er
Ġim p
Ġbe ing
H e
W hen
Ġa d
Ġsto pped
re l
Ġr ain
Ġan gry
b y
Ġy ummy
Ġwat ch
b it
Ġdo ll
Ġc a
Ġcould n
ab bit
v ent
ar y
ĠL et
re e
Ġtr uck
Ġd e
Ġw o
is hed
ĠK itty
Ġm ouse
Ġr abbit
b e
dd ed
Ġat e
re ss
is s
ĠF luffy
Ġlo st
Ġwa rm
Ġsl ide
Ġfa ce
Ġbra ve
Ġg ame
ĠW h
Ġke ep
Ġf ell
f ore
Ġle ave
Ġflow ers
Ġtw o
Ġc ook
ow l
Ġb ed
Ġc ry
Ġp us
ill y
s o
o ck
Ġso on
Ġno ise
Ġgre en
Ġal so
Ġ R
Th at
Ġb unny
e ar
Ġno dded
Ġw here
g an
se lf
Ġfi x
Ġsa t
Ġha ving
ir ed
H i
Ġbe fore
Ġy ell
âĢ Ŀ
Ġke pt
Ġho le
Ġp ain
Ġhe ar
âĢ ľ
b le
d ay
Ġst ore
Wh at
Ġhand s
Ġcat ch
L ook
Ġu se
ir rel
The n
Ġs ing
Ġf in
a z
ir st
Ġus ed
Ġmom my
Ġth r
Ġex pl
Ġfun ny
Ġbird s
Ġsqu irrel
B en
Ġ Now
Ġc ra
Ġloo king
u ch
Ġt ired
Ġe y
Ġgo ing
Ġwa it
Ġb re
Ġk it
o y
e et
ay be
le ep
Ġme an
an ge
t hing
ug ht
Ġ our
l ed
Ġp ull
a ir
Ġd if
Ġfa v
Ġsun ny
Ġt ri
Ġpo nd
em ber
ĠC an
Ġha s
c hen
Ġkit chen
Ġw r
Ġpar ty
t ing
Ġ ice
Ġth ink
Ġfl o
o h
or n
Ġwor k
W e
a c
Ġhe ad
u it
Ġb us
Ġm ess
Ġwor ked
Ġd r
n g
Ġre al
ĠD o
z y
i ous
Ġo kay
oh n
Ġother s
Ġs ound
f t
ll ow
Ġbe h
Ġmor al
Ġey es
at h
Ġsa nd
Ġ z
re w
Ġsh ared
Ġtal k
Ġad vent
Ġrem ember
Ġ âĢľ
Ġfav or
j oy
m a
Ġfavor ite
H ell
Ġr ight
Ġas k
Hell o
Ġc ut
Ġcu ri
Ġco ld
Ġ ri
Ġh op
Ġc on
Ġimp ort
Ġh ill
Ġm on
ll y
Ġd ir
im es
Ġen joy
Ġma king
Ġfo llow
Ġcuri ous
Ġv o
Ġp ie
Ġbr ight
Ġy ard
Ġ G
A t
Ġflow er
k en
D on
Ġsw eet
re ed
Ġmo ve
Ġd uck
Ġd is
Ġ own
Ġre st
Ġdra w
Ġf irst
Ġimport ant
Ġto p
ĠJ ack
Ġsh o
Ġcl a
Ġbe gan
Ġt all
Ġp ick
Ġbl ock
Ġwat ched
ou nt
Ġs leep
Ġbe l
Ġl ady
A fter
Ġn ight
Ġth ing
W ow
i ed
Ġr ace
st er
Ġta il
Ġh ot
fe re
Ġh id
Ġh un
Ġdif fere
Ġag reed
Ġflo or
Ġhe re
Ġsh out
Ġst op
ec t
Ġfor g
Ġd ark
ĠTh is
Ġb ag
Ġgra ss
ig n
Ġwor ry
Ġs ong
Ġt able
Ġta st
Ġt ell
q ue
Ġpr in
Ġneed ed
Ġleave s
ar ing
Ġvo ice
Ġre ad
Ġyell ow
ap er
Ġfar m
ĠF in
Ġr u
Ġd ress
Ġtre es
Ġha ir
Ġsw ing
Wh y
Ġdiffere nt
Ġd el
Ġadvent ure
Ġwal king
Ġsurpr ise
Ġturn ed
Ġp lease
âĢ Ļ
ĠM r
Ġhun gry
M ax
ĠS uddenly
Ġdo es
Ġcar s
ĠD ad
Ġcolor s
o om
S uddenly
Ġlaug h
b o
S ue
Ġclos er
a ched
S am
Ġpret end
c o
Ġli on
i ent
er ed
il a
Ġbro ken
Ġw ood
Ġc ried
Ġpr om
Ġw et
by e
Ġpie ce
ĠTim my
Ġfriend ly
Ġf ull
Ġbeh ind
Ġtra in
is y
Ġdan ce
A nna
pp y
Ġto uch
Ġclimb ed
Ġan other
Ġdan c
a f
Ġg one
w here
Ġapp le
Ġsm ell
bb ed
Ġst e
Ġsw im
S o
c ked
Ġblock s
at er
Ġfeel ing
s h
Ġp aper
ĠTh at
S he
Ġam az
ĠA s
Ġa nt
Ġp er
Ġbut ter
Ġrun ning
ĠJ ane
Ġre ached
Ġhelp ing
Ġfa ir
Ġlist ened
ic ed
Ġgood bye
Ġre ady
a v
Ġon ly
Ġho ld
Ġl ight
Ġa c
r ay
ab y
i ke
Ġ O
Ġro ll
S ara
Ġc ream
ĠBob o
Ġd ri
Ġre pl
Ġs it
ke y
Ġpus hed
Ġf ight
Ġsl ow
Ġpl an
Ġclo se
r ed
ĠA ll
Ġl ess
Ġd one
p e
Ġwa g
Ġ owl
Ġwa ll
Ġc ool
Ġse es
Ġmu st
Ġgl ad
Ġfr uit
Ġw ise
Ġt iny
ie ld
Ġmom ent
Ġwo nder
Ġtry ing
Ġst uck
at her
Ġd ream
I n
Ġd in
Ġthr ough
as h
Ġw ished
Ġp en
Ġfi re
am es
Ġre ach
Ġb ar
Ġth ank
Ġb aby
Ġbe en
Ġwind ow
Ġjo in
Ġexpl ore
ot t
Ġlook s
Ġdo ing
ĠEvery one
Ġa r
Ġb it
Ġbu y
Ġshout ed
Ġa ir
M ia
Ġh ide
Ġbu ild
ĠMom my
Ġne st
Ġsw am
Ġsc ary
Ġf all
Ġcom ing
Ġcl oud
Ġla nd
Ġbr an
Ġw in
Ġb lew
one y
Ġse en
and y
Ġper f
as k
Ġch ild
Ġdir ty
Ġhe ld
Ġbook s
av y
p h
Ġbig ger
Ġle ft
Ġqu ick
Ġrepl ied
Ġm at
el y
Ġunder st
Ġm ight
Ġtre at
nd ma
Ġcolor ful
Ġgra bbed
Ġpull ed
Ġwh y
Ġturn s
O kay
Ġd ro
Ġbutter f
iz ed
Ġremember ed
Ġf ill
ic y
Ġnam e
uck y
Ġch air
Ġcu p
Ġbro ke
Ġca st
or m
Ġc ount
Ġsomet imes
a isy
Ġs ure
Ġth ree
ou p
at ion
Ġsp l
Ġho pped
Ġp ink
t on
Ġstay ed
Ġsn ow
Ġj ob
Ġcla pped
O h
u p
Ġg ames
d er
Ġb ott
Ġg if
e e
Ġwa ited
' re
ĠThe re
Ġpl ant
Ġnot iced
Ġgr ow
Ġball oon
Ġless on
i x
Ġany thing
Ġpicture s
Ġwood s
Ġm out
Ġmout h
ĠA fter
Ġpain t
Ġs et
Ġwa ved
udd y
ow er
Ġenjoy ed
ro om
Ġsp ot
Ġal one
Ġp ot
Ġcon t
Th is
Ġse a
Ġbr other
d s
Ġlike s
ar t
ou n
H er
am p
Ġt ight
" .
Ġth rew
Ġy ear
Ġhe avy
Ġwh ite
Ġfollow ed
Ġg ent
Ġquick ly
Ġbutterf ly
in s
S pot
Ġm iss
Ġcook ies
Ġj u
ap e
Ġde ep
as ure
o lly
Ġevery where
d e
L ucy
z e
Ġbe e
Ġp at
o e
ĠJ ohn
a ught
ri es
Ġm ar
B ob
Ġwor ld
c le
is ter
Ġcl ot
Ġwr ong
Ġclot hes
Ġcast le
Ġc re
Ġwe ar
le ss
l c
Ġp u
ro ss
Ġm um
Ġbut ton
Ġle af
i et
Ġn ap
ĠB uddy
n er
Ġm ix
Ġke y
Ġqu iet
are nt
Ġmake s
an g
Ġbr ought
Ġr ound
r ow
Ġp arent
r ot
u ed
Ġwant s
ull y
Ġwe ll
Ġhim self
ĠD aisy
o s
Ġw on
Ġr ide
Ġdel ic
Ġf ield
m an
Ġdanc ed
Ġa rm
Ġbre ak
ĠL ila
Ġtow er
D o
Ġs ign
ĠWh at
f ully
Ġh it
Ġsn ack
Ġdra g
th y
Ġfast er
Ġk ing
Ġgif t
Ġtal ked
Ġforg ot
Ġw ish
Ġbe ach
Ġle g
g g
Ġs ister
Ġri ver
Ġmu s
ce ss
en ce
Ġfin ished
Ġbran ch
Ġd ry
Ġcom p
le ph
ve s
c y
itt en
Ġsh aring
F rom
Ġb ike
Ġpo l
ĠIn side
ve l
Ġdin ner
Ġdrag on
Ġf ur
ard s
Ġr a
Ġdan ger
Ġre l
Ġe m
Ġb or
Ġre ally
i pp
Ġv is
Ġunderst and
Ġsh in
ĠT o
an ce
Ġbl ack
J ohn
re n
Ġbott le
Ġmon key
Ġfo x
H is
ed dy
Ġmon ster
Ġp ig
Ġsm art
ĠA t
Ġpo in
Ġwor ried
Ġrock s
Ġcont in
A my
Ġg u
Ġcare fully
Ġb owl
Ġsome one
im i
ct or
Ġfair y
Ġto day
Ġat t
a st
Ġfill ed
Ġs ide
Ġp udd
Ġeat ing
Ġwe lc
Ġe l
us h
se s
Ġb oun
Ġc ow
Ġg i
itt ing
Ġbr own
Ġsn ake
e ad
Ġw he
Ġprom ised
Ġf an
Ġs illy
Ġp et
Ġhapp en
Wh ile
J ust
Ġevery thing
Ġy es
t s
Ġre s
ĠM aybe
ĠSo on
Ġparent s
Ġs oup
Ġmus ic
Ġvis it
Ġmu d
Ġlet ter
Ġf ree
at ed
Ġel se
Ġpiece s
Ġro ad
Ġchild ren
Ġb ite
st ead
Ġsa ng
Ġsh op
Ġcontin ued
F in
Ġtal king
Ġk ite
Ġperf ect
z z
Ġe gg
Ġfly ing
Ġsmile s
ĠB illy
Ġthr ow
Ġreal ized
Ġma il
Ġe ar
ĠSara h
or d
Ġwor ds
ĠE m
. âĢĿ
Ġamaz ing
ck et
Ġj ar
Ġlaug hing
Ġwag ged
Ġ que
Ġor ange
Ġse c
Ġmo ved
Ġs itting
Ġen ough
Ġclos ed
Ġ Z
Ġpa ss
Ġm other
Ġwith out
Ġshin ing
g ly
Ġsm o
Ġb uck
Ġst and
Ġcra b
Ġsa il
Ġro pe
Ġdanger ous
f ort
Ġb ath
Ġstr ange
Ġbar ked
Ġsec ret
Ġst u
ĠM imi
Ġdr ink
Ġtast y
Ġ ve
un ch
Ġwelc ome
f ish
ell a
Ġpa w
us ed
i ver
bo ard
Ġcry ing
Ġc e
Ġhe al
Ġwh ist
Ġpa st
Ġl on
is es
Ġc andy
Ġli ving
ĠJ oe
Ġ -
Ġhig her
M aybe
c hes
Ġlon ely
Ġp re
ĠC h
Ġown er
Ġsho es
Ġbel ie
Ġsa ck
Ġfarm er
P lease
Ġmor ning
Ġto m
ar m
at o
ch ool
ĠJ en
g y
Ġsw ings
Ġdelic ious
Ġp urp
Ġs chool
ra ct
is k
ll ie
Ġsc ream
Ġte ac
i ble
Ġpus h
Ġfin ally
! âĢĿ
Ġp h
Ġst one
Ġgra ndma
Ġroll ed
ld er
Mom my
leph ant
Ġpudd le
i ch
Ġst re
Ġdoll s
m e
ĠB l
Ġbl ank
Ġget ting
i re
Ġl ake
am a
Ġask s
Ġpurp le
ll a
ask et
Ġm ad
Ġshe ll
Ġtr ou
Ġyear s
as ed
Ġca ught
Ġblank et
Ġc orn
s et
Ġtre asure
Ġw ore
Ġm oney
Ġrun s
u b
Ġb asket
Ġhop ed
Ġp ile
on s
Ġsa me
isk ers
e o
Ġsing ing
a pp
Ġher self
e y
Ġw ings
Ġp ers
Ġapp les
ck s
Ġb en
Ġcut e
b r
Ġb at
Ġm ine
ĠTom my
Ġj e
ig h
Ġpl ane
Ġgent le
Ġc ray
Ġcar rot
Ġe lephant
Ġteac her
Ġco at
Ġp ill
Ġse ar
Ġball s
Ġdro pped
Ġstar t
Ġf it
Ġt eddy
Ġday s
Ġc our
ir th
irth day
Ġdo ctor
Fin ally
in ed
Ġwa r
Ġcour se
Ġfore ver
Ġjo y
Ġwo ke
aught y
Ġn aughty
Ġhid ing
Ġc ard
Ġse ed
Ġm in
Ġbr ing
Ġprom ise
il k
ĠWh iskers
Ġmo st
Ġar ri
Ġte ach
Ġb and
Ġc r
Ġsp in
Ġcook ie
ump y
o l
Ġf ence
at or
Ġsh ap
Ġche e
Ġro b
Ġbus h
ĠG ra
ĠBl ue
Ġl unch
Ġm ilk
Ġsh r
Ġthink s
Ġb irthday
Ġu gly
Ġe as
ar p
Ġno se
Ġto uc
o se
ĠTh ank
Ġju ice
Ġo b
Ġv ill
Ġb ow
Ġgre w
Ġp op
Ġbel ong
s w
Ġan sw
Ġshap es
f used
i pped
it ch
Ġsh arp
ĠF red
a il
a ss
Ġcre at
Ġyou ng
Ġhear t
s y
ir t
um ber
Ġben ch
i er
ĠB ella
Ġstre et
' ll
b ow
ĠL eo
Ġsee m
J ack
Ġb one
Ġw ra
Ġl ate
Ġm ark
er ry
Ġab le
a le
b all
s c
et er
Ġbelie ve
Ġrock et
Ġz oom
Ġbuck et
Ġco in
Ġbre ad
Ġp ower
Ġpo cket
Ġmagic al
Ġdir t
Ġrob ot
Ġin c
Ġsh y
Ġk iss
Ġsp oon
Ġtouc hed
Ġsh ook
Ġbus y
Ġslow ly
Ġk itten
Ġtw ins
Ġpr ob
Ġche ered
Ġarri ved
Ġsh ake
Ġfeel s
Ġle m
Ġcra w
Ġne ck
Ġse at
Ġcar ry
Ġstor m
Ġtri p
l ing
Ġamaz ed
Ġf ew
un g
Ġsp o
e ared
Ġvill age
O K
ig g
Ġbe ll
id ge
le m
Ġta king
Ġco ll
Ġstor ies
Ġgr umpy
Ġfix ed
Ġpat ient
Ġn ut
oo se
Ġprob lem
o st
urt le
Ġwhe el
G ood
Ġsound s
Ġd ist
Ġli ve
Ġgr ay
Ġwonder ful
ir p
Ġrain bow
un a
Ġwa ve
Ġtow ards
Ġs ug
Ġhug e
Ġsp ark
Ġru de
Ġdri ver
Ġh or
Ġco ver
or s
Ġsong s
fort able
Ġwhist le
ĠM ark
Ġcar t
Ġc ir
e my
Ġw ide
ĠMom o
Ġsa l
L ila
Ġd es
Ġre c
ep end
u nt
en s
Ġstr ing
Ġdis app
k in
Ġs uc
ell y
bb le
Ġtreat s
Ġp ath
pp ing
Ġme et
il ing
Ġup set
Ġhold ing
Ġchee se
al m
Ġmo on
B e
Ġt urtle
op h
Ġw ild
Ġwor m
O f
S ure
Ġ N
Ġl ay
Ġhug s
our n
Ġgra b
Ġfight ing
Ġd i
Ġli fe
Ġgi ant
Ġj ourn
Ġpe ace
Ġbug s
Ġpu ppy
r ing
Ġj ew
um b
Ġsmo oth
Ġb an
Ġnot e
ad ow
Ġjo ke
Ġcl oth
Ġno ises
ĠJ ust
ĠEm ma
Ġjew el
Ġs our
Ġh oney
Ġm ist
Ġsmell y
Ġl ucky
Ġin v
ount ain
Ġs er
Ġc ou
Ġland ed
ul ar
iz zy
Ġ On
one st
Ġn et
pp er
S t
Ġc ave
Ġth in
Ġr ad
a ur
Ġh onest
Ġbe ak
ĠA nn
Ġprin cess
n ot
Ġbo ss
Ġj elly
if e
Ġdri ve
is a
Ġche w
Ġpar t
Ġban an
er y
Ġcan not
Ġsee k
Ġa ct
ĠM olly
Ġmiss ed
Ġb a
Ġm ed
Ġstar s
o ve
Ġdog s
Ġ ign
Ġs ick
Ġs uddenly
re ad
s p
Ġo ven
Ġdro ve
l ower
Ġb ri
Ġst ep
Ġte a
ĠFin ally
Ġspl as
Ġshe lf
ig er
Ġex p
Ġsnow man
Ġwas n
Ġin stead
Ġf le
ĠD og
Ġfo ot
He y
Ġtast e
Ġm aybe
Ġduck s
L ater
Ġs el
er t
op e
Ġac ross
Ġhelp ful
ate ful
Ġsand w
Ġfan cy
Ġadventure s
e st
Ġb ought
Ġwas h
Ġor gan
e re
i an
Ġc ross
T o
Ġl ine
Ġgl ow
ĠR emy
Ġgr ateful
Ġcom es
Ġfor get
Ġsl id
Ġas h
Ġcon fused
id y
le t
Ġsp e
Ġch ange
Ġpu zz
Ġheal thy
Ġpill ow
Ġd ish
Ġp ract
Ġz oo
ĠO llie
o ppy
Ġv al
oom y
Ġste pped
Ġla st
ere st
Ġl ad
Ġc ap
Ġint erest
Ġe lder
Ġch o
Ġsel fish
it y
Ġwor king
Ġwho le
Ġeas y
Ġelder ly
w ard
Ġany one
Ġstick s
Ġwatch ing
Ġhop e
Ġc alm
Ġmess y
co l
Ġp ri
Ġsa ve
am ed
Ġch ased
Ġdad dy
Ġtake s
Ġforg ive
Ġa v
Ġwe ak
Ġmy ster
Ġte am
iz e
irp y
Ġwr ite
Ġsh irt
Ġlad der
o c
Ġt ape
Ġwo lf
t o
ĠS p
Ġcle ver
pec t
Ġspl ash
Ġleg s
Ġlem on
Ġm ind
Ġfe ather
Ġph one
Ġhor se
Ġlong er
Ġplant s
Ġpers on
Ġt idy
Ġp our
id er
Ġst ret
Ġj og
Ġpr ot
e ver
or k
Ġem p
S oon
Ġb ark
Ġl ater
Ġp an
Ġal ong
ĠC at
iz z
Ġemp ty
S ally
ĠB u
Ġbo ot
Ġface s
Ġseem ed
Ġlo ck
Ġco zy
Ġpretend ed
bb les
Ġsleep y
Ġh um
ion s
Ġs u
it ing
Ġsa ved
Ġst ir
Ġfin ish
Ġwait ing
Ġm ach
ll o
Ġswim m
C ome
p ill
Ġre t
pill ar
? âĢĿ
u ally
ain ed
Ġsp icy
Ġch ick
ĠC ome
Ġche er
Ġboun ce
Ġ ent
Ġr ing
ĠL isa
Ġgo at
Ġscream ed
Ġret urn
Ġf ake
Ġp ool
ul t
ĠCh irpy
d en
Ġjump ing
ĠDad dy
Ġs uch
Ġinterest ing
Ġsu pp
Ġt ie
Ġwonder ed
Ġcloud s
Ġprin t
e k
Ġp in
ĠD ucky
Ġfruit s
Ġmist ake
un k
Ġdr ank
o cked
Ġli ft
Ġsp ray
er pillar
Ġth ough
Ġpl ate
Ġe ag
Ġcat erpillar
Ġst ra
ĠTo gether
Ġboss y
d ge
iss ors
bo x
Ġon to
Ġg ather
Ġd rew
et h
Ġk ick
ĠBen ny
Ġbuild ing
Ġsc issors
Ġmach ine
Ġswimm ing
ĠT V
le br
ĠW ith
Ġri ch
Ġn orm
Ġn umber
ĠS t
Ġshe ep
ĠE lla
Ġgive s
Ġhid den
Ġce lebr
on t
Ġnorm al
Ġw ing
Ġbr ush
K itty
Ġclean ed
Ġlove ly
Ġexpl or
Ġarm s
Ġfur ry
Ġcray ons
Ġfr ont
Ġgl ue
Ġtrou ble
m ent
Ġf ing
Ġc her
Ġp ack
ĠM y
Ġsp ider
ac ed
Ġpen c
izz a
Ġl ar
Ġc age
Ġmat ch
Ġpoin ted
Ġsug ar
ĠDog gy
Ġpenc il
Ġm el
ĠThe ir
ĠB unny
el p
Ġapp eared
ur se
Ġput s
Ġprin ce
Ġsmell ed
n ed
Ġs ur
Ġg ate
oo p
ĠL una
Ġpr ay
Ġgent ly
os aur
ĠGra ndma
y ard
Ġback yard
Ġdin osaur
Ġmat ter
Ġsear ch
A nd
Ġf il
Ġfe ar
Ġdr um
p a
Ġsh ip
Ġcla ss
Ġg un
Ġtow el
Ġque en
Ġcir cle
Ġsm iling
Ġv an
ĠG o
Ġcou ch
Ġ icy
Ġte ar
Ġnear by
Ġim ag
aught er
Ġyell ed
Ġash amed
Ġpower ful
Ġwa nd
Ġc ri
ĠS omet
ĠJ erry
Ġfl ag
ge st
Ġplace s
Ġque st
H elp
Ġla w
Ġa f
Ġw om
Ġl amp
le v
ĠWh y
Ġd aughter
Ġp izza
Ġm ir
or row
ĠM ama
ic ked
Ġcar ried
Ġlar ge
Ġwom an
M y
Ġa p
Ġtr ust
Ġgl ass
Ġwra p
Ġjourn ey
y m
Ġg as
Ġne igh
ĠJ im
Ġtr ue
Ġru b
St op
r or
v ous
Ġb al
on es
Ġtri es
Ġneigh b
i que
ĠJ ill
Ġun ique
Ġem b
Ġje ep
Ġign or
is p
Ġwe aring
Ġfr ight
ens ive
Ġexp ensive
Ġh ur
ĠI f
Ġgo es
Ġtom orrow
Ġd izzy
itt er
ĠB e
Ġlove s
c ed
Ġd ig
Ġsa f
Ġwe ird
Ġant s
Ġthe se
Ġhe llo
ug g
ra id
Ġch ase
ĠBob by
Ġdanc ing
Ġmir ror
Ġre g
Ġsp ring
Ġaf raid
Ġnot hing
ĠB r
Ġsc ar
ĠT iny
ar ra
Ġpo or
Ġfright ened
arra ss
k n
m er
nd pa
Ġc and
Ġn er
Ġwh isp
Ġla zy
Ġte st
Ġeag er
Ġemb arrass
if f
Ġprot ect
a w
Ġst ood
Ġde st
Ġtom ato
n ess
Ġsuc cess
kn own
Ġner vous
Ġbr idge
bb y
Ġsplas hed
Ġpuzz le
Ġw is
Ġw ip
Ġb ake
Ġp ay
Ġcl ay
Ġun known
Ġg en
Ġg igg
Ġgo ld
Ġdec or
Ġimp ress
Ġcreat ive
Ġinc red
in a
Ġfe et
vent ually
er a
ĠR ex
Ġincred ible
Ġt ent
Ġso l
Ġso ck
Ġle ad
Ġsandw ich
Ġsw an
Ġte eth
an y
Ġuse ful
ĠH ow
ĠM ary
Ġclo ck
u al
ut e
ĠB ird
ĠB ear
Ġste ak
Ġbor ing
Ġres pect
Ġso ap
ber ry
Ġsqu are
Ġdis co
Ġstra w
l ves
Ġf ool
Ġclos et
Ġmix ed
Ġpre s
Ġp ump
Ġm ask
ow ed
Ġkn ocked
Ġpot ato
Ġpeace ful
c ream
Ġb urn
Ġwh ale
Ġsw ord
Ġfam ous
air s
Ġmyster ious
Ġh ar
Ġbe an
ĠAnd y
Tom my
up id
Ġgen er
r ated
w e
Ġ 3
Ġy og
Ġsh ark
Ġso ld
Ġansw er
Ġsc o
b led
c ient
ar l
Ġr ug
Ġk icked
Ġwould n
Ġfe ed
ĠP lease
Ġpol ite
c om
er ri
Ġan cient
Ġj am
Ġme asure
Ġdis g
Ġsnack s
Ġbl ow
Ġrel ie
Ġcorn er
o nd
Ġe sc
Ġsp ace
Ġno isy
re en
im p
ot e
Ġsp read
Ġbran ches
Ġscar f
Ġst upid
ĠD on
Ġpain ted
orm ous
Ġcho col
r ob
Ġr ough
Ġsho e
Ġmar ch
Ġegg s
Ġwag on
Ġpaw s
u ce
Ġd ug
Ġmom s
Ġfr ust
Ġde ad
Ġstu dy
Ġcr own
Ġdisg ust
Ġt erri
Ġb arn
ĠSomet imes
Ġfool ish
rob e
D ad
Ġm is
en ny
Ġr are
Ġse ll
Ġen ormous
Ġste al
Ġpres ent
get able
Ġsc are
Ġunderst ood
Ġve getable
Ġsal ad
Ġbanan a
Ġba ld
Ġmed ic
Ġchocol ate
Ġdisgust ing
c orn
ed ient
ig hed
Ġher o
Ġst uff
ad o
Ġcl ap
Ġgener ous
Ġmedic ine
f ic
Ġb itter
Ġg oose
Ġgr oup
Ġdif fic
p es
Ġth ick
Ġro ar
ĠSam my
Ġmu sh
ĠIn stead
Ġbre ath
Ġperf orm
Ġfrust rated
Ġdiffic ult
Ġt ick
Ġsh adow
Ġsmall er
ĠP e
Ġmark et
Ġcover ed
Ġmel on
Ġg uit
Ġor d
Ġtast ed
Ġob edient
Ġguit ar
m b
p ort
Ġwa ke
or ry
ro y
Ġh orn
Ġha ng
ĠS ome
al k
Ġla b
Ġdest roy
Ġto ug
in al
Ġm ot
Ġm ountain
Ġas leep
Ġre f
as ses
Ġbor ed
a king
Ġwh ich
Tim my
Ġta ught
Ġstand ing
l and
Ġh arm
Ġbec ome
us ual
ĠBr own
Ġrelie ved
Ġs uit
Ġli f
Ġjoin ed
Ġterri ble
Ġtoug h
at ter
al ous
Ġj ung
Ġpe bble
Ġmo ving
Ġsqu ash
Ġje alous
Ġexplor ing
Ġmush room
ig inal
al s
Ġkn ife
Ġyour self
Ġpar rot
Ġad m
Ġjung le
Ġt un
Ġas king
Ġun usual
Ġcle ar
He re
To gether
Ġdisco ver
Ġpump kin
Ġd ull
Ġspo iled
Ġpri ze
Ġb ul
Ġf at
at ch
Ġsun f
Ġchick en
Ġt iger
Ġmight y
Ġpop corn
Ġnut s
Ġf ine
Ġthought ful
Ġcom b
Ġhear s
Ġbul b
m p
Ġs que
Ġh ay
id ent
Ġst ri
Ġtoo l
um e
Ġv ase
Ġtw ist
ĠP oppy
Ġseed s
Ġ ind
er ce
ra g
Ġor iginal
Ġfi erce
Ġdr op
Ġc op
ĠW ill
Ġsn ee
Ġend ing
Ġdraw ing
Ġis land
Ġthank ful
Ġcarrot s
Ġc ro
um sy
Ġsp ent
Ġmu ff
Ġche ap
In side
Ġrel ax
Ġembarrass ed
Ġa unt
Ġm ic
se lves
Ġcl own
Ġbl oom
Ġknow ing
Ġen g
Ġfo ld
Ġtrou bled
A re
ĠT r
ot o
Ġfr own
Ġfind ing
Ġte mp
Ġrec ord
Ġbal ance
com fortable
Ġsunf lower
Ġ '
ĠM any
Ġlo se
Ġun comfortable
Ġche st
Ġhat s
s er
Ġa dd
Ġc one
ĠS unny
ce an
ĠA l
Ġo cean
Ġexc iting
irst y
Ġadvent ur
Ġsho ot
Ġgu ess
x ible
in ess
il t
Ġst amp
Ġac orn
Ġlif ted
d le
y al
Ġse al
Ġcl umsy
Ġsc atter
op ard
Ġtri ck
ĠJen ny
S orry
Ġc ush
ag es
Ġwr ote
Ġhair y
ang le
Ġpast a
Ġadventur ous
W here
l ace
Ġbo dy
Ġlo yal
Ġcat s
Ġun l
Ġcra zy
Ġpick s
Ġar row
Ġneck lace
t i
Ġb er
Ġd epend
Ġex am
Ġco st
Ġho se
Ġcom fortable
Ġbra ce
Ġtell s
Ġstu bb
Ġharm less
Ġber ries
a pped
i ant
x ious
am ond
ur key
Ġbeh ave
Ġdel iver
Ġsear ched
t ti
he tti
Ġan xious
ag hetti
Ġdi amond
Ġorgan ized
Ġeng ine
M olly
g u
Ġf is
Ġmo v
Ġrem ind
Ġcray on
Ġcoll ect
epend ent
Ġstubb orn
l ight
Ġt urkey
Ġth irsty
Ġplay ful
Ġsc r
Ġsw e
ĠEm ily
Ġpract iced
Ġstret ch
h ost
Ġt ied
Ġf rag
Ġp ir
an ged
Ġj ug
Ġwor d
Ġen v
Ġen vel
Ġbu bbles
Ġgl oomy
Ġmail box
d ile
l ph
Ġr aced
ill a
Ġre p
Ġsp aghetti
Ġpr un
Ġyour s
ant s
co dile
Ġbar ber
Ġpol ice
Ġbath room
Ġcraw l
Ġfle xible
Ġind ependent
H ow
Ġs il
Ġpr o
ĠE ven
Ġde er
Ġcra ck
Ġesc ape
Ġ U
Ġg host
Ġli z
Ġpig e
Ġpass ed
Ġmot or
Ġfrag ile
a ff
Ġneed s
Ġjo lly
Ġde af
Ġcelebr ate
Ġdepend able
i o
Ġf ig
Ġbe es
Ġr at
Ġdo ve
Ġdo lph
Ġro of
Ġche ss
Ġsto ve
ĠWh ile
sh ine
Ġwhe at
c ident
Ġst at
Ġle opard
Ġfl ash
Ġra ven
Ġatt ic
Ġbri ll
Ġcro codile
n ic
Ġp ress
Ġm ap
Ġy arn
Ġlo g
Ġboy s
Ġsun g
Ġch anged
Ġshow s
Ġpain ting
Ġexpl ained
Ġbrill iant
I f
g round
Ġth u
Ġwe al
The ir
Ġpic nic
Ġcol our
Ġhum ble
Ġ er
Ġm ill
Ġsh iver
Ġbo ard
Ġtri cks
Ġz ip
Ġcraw led
h ip
n el
Ġch oose
Ġus ing
Ġignor ant
Ġtemp le
Ġenvel ope
M e
M ama
i v
l asses
w eet
Ġs end
Ġh oop
Ġfriends hip
Ġfr ame
Ġru ined
Ġballoon s
Ġav oc
Ġcheer ful
Ġsung lasses
m et
n et
in ary
Ġkn ee
Ġpe pper
Ġfo lder
Ġbu ilt
Ġac cident
Ġcount ed
Ġbott om
Ġra ft
Ġbat ter
Ġpop ular
m ost
Ġwa ves
Ġp ants
id dle
Ġst ones
Ġhel met
Ġro se
Ġspot ted
Ġdelic ate
Ġcomp et
E very
w ork
Ġto ast
ig ator
Ġj ack
ul u
Ġsp ill
Ġsc reen
Ġsun shine
Ġtri angle
Ġkiss ed
Ġenv ious
Ġs ighed
Ġm iddle
er able
Ġst age
ĠYou r
ump et
Ġcare less
fe e
Ġtr umpet
Ġclean ing
Ġloud er
Ġmis erable
Ġliz ard
J ane
y ing
Ġ No
Ġwa nder
it her
Ġp ow
Ġsc ale
Ġal most
Ġser ious
Ġfing er
Ġimpress ive
Ġhar sh
Ġvegetable s
Ġtun nel
Ġpige on
Ġstat ue
Ġsa iled
ĠS h
of fee
se um
Ġall igator
ia ble
Ġho pping
Ġma ze
Ġbel t
Ġbor row
Ġbrace let
Ġme ant
Ġno sy
Ġmu seum
Ġsl ipped
Ġnap kin
Ġgu ard
Ġear th
Ġfig ure
Ġb in
Ġwas hed
Ġsa us
The re
Ġpo st
Ġta ken
Ġcom pl
Ġpen ny
Ġatt ract
M um
Ġc oo
Ġc ries
Ġc offee
Ġg ar
Ġr h
Ġhapp iness
Ġhurt s
Ġrel iable
Ġjelly fish
Ġneighb or
Ġmov ie
Ġjack et
Ġg or
Ġkn ight
ber ries
ct op
Ġfil thy
Ġord inary
Ġattract ive
Ġc am
Ġg em
Ġon es
Ġsh ore
as er
Ġrad io
Ġcush ion
Ġweal thy
Ġc ab
om ob
ut omob
Ġfor ward
Ġbox es
Ġpe ach
Ġmag net
Ġwalk s
ipp er
Ġbelong ed
Ġmuff in
utomob ile
l ive
Ġt ag
Ġsh ade
Ġlo cked
Ġno d
Ġshell s
Ġpour ed
Ġgor illa
Ġcam era
p ack
z zy
Ġa utomobile
ll ip
Ġlo llip
Ġfl uffy
Ġboat s
Ġpers ist
Ġansw ered
Ġreg ular
Ġwhisp ered
Ġdolph in
Ġcab in
Ġlollip op
a ppy
Ġt imes
on y
Ġno ds
Ġdraw er
Ġgi ving
Ġdes k
d om
Ġf our
Ġwe ek
ĠM iss
Ġlo ad
Ġmu le
Ġcre ate
Ġsmo ke
Ġsail or
Ġcompet it
c les
om es
Ġg um
ut h
Ġo ctop
Ġsay ing
Ġch u
Ġlot ion
Ġtra vel
co a
Ġju dge
Ġw itch
et e
Ġan g
ĠJ ake
ink y
Ġsn iff
Ġtw ig
Ġstrong er
Ġdel ight
Ġcup board
ĠTo day
Ġshr imp
Ġchu bby
G o
g ing
u nd
Ġw ool
Ġli br
ic t
Ġhouse s
Ġbu bble
Ġinv ited
Ġreturn ed
Ġsuccess ful
Ġgar age
Ġhelp less
ur b
Ġle an
Ġshow ing
Ġnice ly
Ġmo le
Ġneed le
ess ie
Ġlive ly
Ġsupp ort
Ġd ough
Ġu mb
Ġy et
Ġhelp s
Ġal ert
Ġmo der
Wh o
Ġgr own
Ġfear ful
Ġpersist ent
Ġumb re
an ut
Ġth ie
Ġsh ine
Ġfr idge
Ġcl ub
Ġget s
Ġtr unk
Ġdream s
Ġdist urb
Ġrad ish
Ġsol ve
Ġsco ot
Ġsque e
Ġl ow
an ger
ĠL ulu
Ġli cked
Ġdec ide
Ġbed room
Ġsleep ing
Ġval ue
Ġcoo ked
Ġoctop us
Ġmoder n
o in
Ġre pe
Ġcar p
Ġloud ly
Ġboun ced
Ġce re
Ġcreat ure
Ġ ot
Ġt ank
Ġt ire
Ġs le
Ġb ase
Ġh ive
Ġd ive
Ġc ity
ĠS n
Ġun cle
Ġsor t
Ġway s
Ġqu ar
Ġac ce
Ġspe ed
Ġspe ak
Ġwis hes
Ġot ter
Ġh ipp
Ġg ym
en se
Ġlearn ing
Ġtr uth
Ġhard er
az z
Ġspl it
Ġcand le
Ġthu nder
Ġer aser
Ġumbre lla
Ġl it
or able
Ġst ation
Ġsp end
Sara h
Ġrep air
c ut
x y
Ġf ather
Ġm op
Ġm ild
il ty
ri c
Ġch alk
Ġor der
Ġgu ilty
Ġcher ries
Ġcere al
B illy
y e
ir on
Ġbig gest
Ġj et
ul if
Ġco coa
Ġv ine
Ġpoin ting
Ġwheel s
Ġjewel ry
Ġflash light
Ġthie f
Ġquar rel
Ġ ed
Ġs ink
Ġh omes
Ġf ountain
at ient
Ġso ar
ter n
Ġkn ot
Ġgra ce
Ġimp atient
Ġad orable
Ġca ct
Ġca ulif
ĠR ob
ĠTr ue
g en
as ing
Ġhappen ing
Ġpow der
Ġlibr ary
Ġcarp et
Ġcact us
Ġc ase
Ġher b
Ġst ream
Ġfor th
Ġsk ipped
Ġoff ice
Ġpen gu
Ġswe ater
Ġl ying
Ġha lf
ir it
Ġst aff
ke ep
Ġfor k
Ġsh ield
Ġfl ute
Ġgra ndpa
ĠDo lly
Bob o
arm ing
Ġfis her
j ect
r n
is ted
or y
ra ge
ob y
Ġwhen ever
Ġch arming
Ġgra pes
Ġhand le
Ġhipp o
es day
Ġsk in
Ġtri pped
Ġcount ing
ass ion
Ġval u
Ġfeather s
Ġang el
Ġcaulif lower
p ed
z ed
Ġt ap
Ġh unt
Ġl ed
Ġe lev
Ġthem selves
ach t
Ġknow s
ĠP eter
Ġmar ry
Ġdes ign
Ġthin king
Ġstraw berry
Ġtick et
Ġavoc ado
Ġsle pt
Ġelev ator
w as
ed y
Ġy acht
Ġe ventually
Ġsp un
Ġte leph
Ġgif ted
Ġwra pped
Ġdish was
Ġcompl ain
Ġcompetit ive
Ġteleph one
Ġdishwas her
Ġ iron
ell ig
Ġint ellig
Ġexc ite
Ġsk ip
Ġshr ink
M ummy
Ġsa uce
Ġtr ay
Ġtow ers
Ġqu it
Ġhair cut
Ġcomp assion
Ġph oto
Ġdisapp oin
Ġfle a
Ġgather ed
Ġw ire
ĠT weet
Ġd eter
Ġn urse
at es
ri ll
Ġan ch
Ġpo le
Ġpo em
ĠR ose
Ġgigg led
Ġdecor ate
Ġpir ate
J im
b ul
Ġa er
Ġto e
Ġto rn
Ġwa ff
Ġha m
Ġsh ape
el ery
op l
Ġam bul
Ġrest less
Ġear s
Ġcri cket
Ġquest ion
Ġvalu able
Ġanch or
Ġaer opl
Ġambul ance
F luffy
Ġn umb
Ġy aw
Ġv ide
Ġhot el
Ġbar rel
Ġbutton s
Ġslid es
Ġdeter m
G ive
is ion
at s
ag ed
Ġstr anger
ac he
Ġset t
Ġed ge
Ġs ight
Ġw ife
Ġb ull
Ġc elery
at ing
Ġsh ut
Ġme al
Ġtra il
Ġz ipper
bo dy
Ġpat tern
Ġtear s
Ġunl ock
Ġnumb ers
o ld
Ġp it
Ġwe igh
ĠB oun
Ġtra p
Ġmean s
Ġbus hes
Ġri bb
Ġlaugh s
Ġspin ning
Ġsal t
ĠJim my
Ġfisher man
Ġintellig ent
Ġcompassion ate
Ġdisappoin ted
d el
Ġp le
?" .
Ġmo del
Ġcomp ut
Ġcard board
Ġbanan as
he ad
ĠT oby
it al
Ġm ug
Ġin k
Ġe ither
Ġnew sp
ie w
Ġv iew
Ġho sp
Ġpe ar
ĠK im
ĠP ete
Ġwall s
Ġju icy
Ġsur f
Ġsold ier
keep er
Ġhosp ital
Ġa dded
it o
Ġc urt
Ġm itten
Ġr id
Ġsh ort
Ġbird c
Ġo il
qu ito
de st
oph ie
' d
M r
n am
Ġp al
Ġp ap
Ġn ail
ent ion
Ġsp ear
Ġpe e
Ġpre p
Ġdist ant
Ġsuc ce
Ġsaf ely
ĠPe ople
Ġsil ver
Ġcurt ain
Ġbirdc age
s quito
!" .
us hed
Ġmo squito
Ġen c
Ġcri b
Ġspill ed
a ving
r on
Ġt ummy
Ġt ask
Ġb ump
Ġc ob
Ġp urse
ut es
Ġplay ground
ur ing
Ġro de
Ġco ins
Ġpa le
Ġpain ter
Ġlight s
Ġdream ed
up er
Ġbike s
ĠBu zz
Ġquest ions
Ġwip ed
Ġyog urt
Ġlab el
Ġcost ume
p ar
Ġsp irit
Ġgl ove
Ġsho cked
Ġpretend ing
ĠO K
Ġmin utes
Ġrub ber
Ġmotor cy
Ġgrace ful
Ġaeropl ane
Ġsucce ed
, âĢĿ
a it
in oc
Ġd ust
Ġp or
at ely
Ġit self
Ġst ack
ĠL ittle
Ġhel ic
ur ch
op ter
Ġco al
Ġch ain
Ġfall s
Ġcoll ar
Ġpro v
Ġsaus age
Ġcomput er
Ġpal ace
inoc er
Ġhelic opter
r iger
u el
Ġp un
st al
Ġkn ob
Ġor nam
Ġkind ness
Ġcry stal
Ġscoot er
inocer os
riger ator
Ġornam ent
Ġa x
ĠT eddy
Ġl ime
Ġm elt
Ġg ear
Ġo ak
Ġro d
Ġgo lf
Ġfa uc
Ġpar ade
Ġpa cked
Ġstep s
Ġfauc et
Ġh our
Ġth ose
Ġli e
Ġle ash
Ġv end
Ġmo dest
ĠEvery where
Ġey e
umb led
Ġref rigerator
Ġbase ball
Ġnewsp aper
I s
c ing
Ġs uper
Ġf og
Ġc able
of a
il ot
Ġli c
ĠB ill
ug ged
Ġse par
Ġmake up
Ġfi rew
Ġhat e
Ġpick ing
Ġdri ving
Ġmat t
Ġbrother s
Ġcomp let
Ġdisapp eared
Ġav ail
lev ision
Ġrh inoceros
Ġfirew ork
Ġ oft
Ġs ofa
Ġp ine
Ġin se
st ri
Ġon ion
Ġno vel
Ġte levision
ĠG ive
Ġswing ing
amp oo
Ġres c
Ġser ve
ĠSp ike
Ġvide o
Ġlic ense
Ġoft en
W ell
a ked
r oph
t ime
Ġh ook
Ġm ath
Ġha ll
Ġman aged
Ġsp ell
Ġch urch
ĠC l
Ġru bbed
Ġcup s
Ġpol ish
Ġmed al
ĠBird y
Ġdeterm ined
Ġax e
Ġavail able
ĠB et
ĠM um
Ġsc rew
Ġme adow
Ġal arm
ĠF o
Ġdraw ings
Ġtall er
Ġbag s
Ġcool er
Ġmiss ile
Ġspark ly
Ġdisapp ear
we b
Ġcob web
Ġpor ch
roph one
c key
d robe
Ġ ig
ar ry
st airs
ht ub
Ġstar ed
Ġho ckey
Ġgr owl
Ġclimb ing
Ġmet al
Ġbooks he
Ġbasket ball
Ġbat htub
Ġwar drobe
Ġband age
Ġdi ary
Ġpengu in
Ġvend or
B ye
h us
l oo
re ady
Ġm ay
er c
Ġth read
Ġo stri
Ġme at
Ġal ready
Ġri ce
Ġroll ing
ĠJohn ny
Ġve il
Ġmin er
Ġent hus
Ġcher ry
Ġgas ped
Ġhur ry
Ġbatter y
Ġig loo
Ġbookshe lf
Ġenthus ia
R e
W ait
Ġc omet
om ed
Ġit ch
Ġr ise
Ġro ot
Ġkn ock
Ġsw ung
Ġgra pe
Ġmag az
ĠP ipp
Ġexpl ain
Ġstu d
Ġorgan ize
Ġstret ched
ĠSn ow
Ġhunt er
Ġpap ers
Ġinse ct
A l
S ee
Ġb icy
Ġl umber
Ġm ummy
ver se
Ġnot ice
Ġo k
ist ol
af fe
Ġob ject
Ġmic rophone
Ġmotorcy cle
Ġmatt ress
n ger
Ġd ess
Ġp ilot
Ġp istol
Ġre ward
Ġex erc
Ġfl ame
Ġsn ap
Ġimp ro
Ġcook ing
Ġreal ised
Ġmust ache
Ġdream ing
Ġar g
ric ane
Ġenc ou
G ra
a ul
Ġf ought
Ġshe et
omet er
Ġfl our
as p
Ġun pack
Ġtr oph
Ġvo lc
Ġwall et
Ġwin ter
Ġblack board
ĠZ oomy
Ġsug gest
Ġjoke s
Ġvolc an
l ter
ĠL ee
Ġbl in
Ġpe anut
rm ometer
ip e
ac hes
Ġfall ing
Ġbuck le
Ġpast ry
Ġnet work
ian o
Ġbicy cle
O uch
a id
Ġb ent
Ġc amp
Ġr ake
Ġsh ampoo
Ġsun set
Ġv i
Ġcall ing
Ġtruck s
Ġtroph y
Ġvolcan o
Ġp iano
Ġst om
Ġwe ep
Ġne at
ak y
ĠP andy
Ġdra in
Ġbee f
Ġatt ach
Ġpract ice
Ġpress ed
Ġostri ch
l ies
Ġst able
Ġshe lter
ur ed
Ġme m
Ġpo ke
Ġte asp
Ġbu ry
Ġsweet ie
Ġtrain s
ang u
Ġhum an
Ġpack age
Ġap ron
Ġhang ing
Ġham mer
Ġhour s
Ġteasp oon
Ġ ow
Ġs ym
Ġh ut
ar oo
Ġin s
Ġr ag
Ġk ang
um mer
Ġagain st
Ġbl ouse
Ġsn e
Ġoff ered
Ġtra ck
Ġsquirrel s
Ġmess age
Ġenjoy ing
bo l
Ġpat ch
Ġmar ched
Ġcr ane
Ġdiscover ed
Ġkang aroo
u be
z ag
Ġt ube
Ġl end
Ġl angu
ig zag
Ġu r
Ġfa ctor
ĠJ o
Ġsk ull
Ġsk irt
pl ay
Ġdis play
Ġear ly
Ġpass port
Ġprun es
Ġmagaz ine
Ġsym bol
Ġfactor y
Ġf uel
Ġn ation
at ure
Ġst airs
ĠF ro
Ġfrog s
Ġsho vel
Ġhold s
Ġpre vent
Ġfing ers
Ġexcite ment
Ġpee ked
L ittle
Ġt en
Ġs on
Ġc ell
Ġr ot
st ic
Ġon ce
ĠL ook
Ġli p
ĠB essie
Ġun iver
Ġche ck
Ġper m
Ġcast les
ĠZ ip
Ġbat he
Ġjourn al
Ġaccident ally
Ġenthusia stic
Ġdess ert
Ġs ke
Ġthe ater
le ton
Ġhapp ier
Ġj unk
Ġo y
Ġkn e
ĠD an
Ġpo pped
Ġcu be
Ġopen s
Ġfree z
Ġfoot ball
Ġyog a
i um
i ence
Ġthe rmometer
Ġf ive
Ġc ord
Ġp ipe
Ġhe dge
ĠHe re
Ġsh aking
Ġall owed
Ġloo p
ff ic
Ġtell ing
Ġread ing
Ġmat ches
Ġgrow ing
Ġbath robe
Ġzoom ed
ĠBu zzy
Ġske leton
c ome
Ġ âĢ
in ation
Ġfast est
Ġsl ipp
az or
Ġdis ag
Ġrest ore
Ġdist ance
xy gen
n ey
in es
Ġha nger
Ġst umbled
ion ary
Ġlisten ing
Ġpin ch
ict ionary
c ase
Ġa head
Ġd ictionary
her o
Ġgo al
Ġpe ek
Ġplan et
Ġstir red
Ġfil m
Ġadm ire
Ġribb on
Ġsuper hero
Ġvi ol
J oe
S h
f ast
Ġto ile
ĠT ina
Ġg az
ĠM ummy
Ġhelp er
Ġre verse
Ġal ive
Ġch ose
Ġsurpr ises
Ġstick ers
Ġtra sh
Ġbri ck
Ġcomplet e
Ġviol in
Ġs ub
Ġp ony
ar ian
Ġch asing
Ġpo ppy
Ġjump s
Ġstr ugg
Ġstop s
ast ic
J ill
c u
Ġb ill
Ġc udd
Ġla und
ie st
ap on
ĠE llie
pl ace
Ġdoes n
Ġbreak fast
Ġra il
Ġcir cles
Ġrespect ful
Ġacce pt
Ġminer al
Ġblin ked
Ġfreez er
Ġlaund ry
l id
Ġs ummer
Ġto oth
re nder
Ġg rill
Ġplay er
Ġbe et
st iv
ch an
Ġre fused
Ġle aving
Ġla ser
Ġsw itch
Ġfe stiv
Ġve st
Ġhur ricane
Ġstri p
Ġexerc ise
Ġtoile t
Ġfestiv al
Ġst ad
Ġle ak
Ġho lid
Ġdoor s
ĠMr s
Ġlion s
Ġfire place
Ġcabin et
Ġwaff le
Ġlangu age
Ġstad ium
Ġholid ay
D id
Ġb erry
Ġm en
ht ray
Ġme owed
ĠE lly
Ġtw ir
Ġru les
Ġair port
Ġmonkey s
ĠZ oom
Ġmin t
Ġspo ke
Ġsearch ing
Ġsnee ze
Ġsniff ed
Ġple ased
E m
O w
m ed
w ards
Ġt ip
Ġr azor
Ġo ats
ic hes
Ġro ared
Ġsl ap
Ġcom fort
Ġtra ffic
Ġfav our
Ġforg ave
Ġtight ly
Ġlem ons
Ġsandw iches
Ġlaw n
ĠBet ty
k i
Ġs ent
in ce
Ġc ur
Ġn ature
im ney
ig gly
Ġpl astic
ĠM ar
Ġas htray
Ġme chan
Ġcar ing
Ġag ree
Ġfind s
Ġch imney
Ġany way
Ġsl ip
Ġpa ir
Ġstick er
ĠO r
Ġwindow s
Ġob ser
Ġmeet ing
Ġboot s
Ġsepar ate
Ġstom ach
Ġfavour ite
Ġmechan ic
s ses
ĠJ azz
Ġun ite
Ġen er
Ġblue berry
em ent
Ġbre at
Ġlight ning
Ġmix er
Ġcow s
Ġres ist
Ġgrab s
Ġbark ing
Ġtomato es
Ġbeet le
h ic
y ear
Ġ Y
Ġc ards
ĠA re
Ġgir affe
Ġsp ort
Ġpo ked
Ġho les
Ġpoin t
Ġletter s
Ġve hic
Ġmin ute
Ġbelong s
Ġclass room
Ġimag ine
Ġsub way
b ook
l a
n ight
ay ak
ĠS ophie
am ber
ĠB ig
Ġk ayak
ht er
Ġlaug hter
Ġfl ood
Ġrem ove
Ġnote book
Ġinv ite
Ġmistake s
ĠBoun ce
ĠPipp in
Ġoy ster
Ġbill board
t e
Ġy ield
Ġr ac
Ġnam es
Ġo xygen
ap a
Ġhand ed
Ġrem ain
Ġcount ry
Ġpudd les
Ġmusic ian
Ġcart oon
ĠAl ice
Ġlean ed
Ġimpro ve
c ast
Ġs udden
Ġs ize
ĠS andy
ch air
Ġwh ip
Ġch amber
Ġproud ly
Ġbook case
Ġsand cast
Ġswam p
Ġwar n
Ġwar ned
Ġspo il
Ġproblem s
Ġcou rage
Ġglow ing
Jim my
e b
v ice
Ġw ine
in arian
le nd
ig i
Ġbe ep
Ġsad ly
Ġab ove
Ġpus hes
ĠR u
Ġpull s
Ġdanc er
ol a
eter inarian
Ġlaw y
Ġwip e
Ġstraw berries
Ġf re
Ġp ages
is on
Ġn avy
Ġso il
Ġcl iff
Ġco pper
Ġtr ade
Ġapp l
Ġsand box
Ġbutterf lies
Ġce iling
Ġpan ic
Ġsur render
Ġfrown ed
Ġresc ue
Ġslipp ery
c col
Ġ x
Ġp age
Ġfor t
Ġre ce
us ie
Ġv eterinarian
Ġfeel ings
ro d
Ġte ase
Ġkind s
ĠP olly
em ember
ĠO w
Ġplan es
Ġar t
Ġarm chair
Ġinc re
Ġcarry ing
Ġkne el
ccol i
g ie
Ġ ext
Ġst air
Ġwe apon
ec ause
Ġint rod
au d
Ġbright ly
Ġdel ay
Ġbelie ved
Ġign ore
Ġrepe at
Ġprov ide
Ġener gy
eb ra
c er
l u
n esday
ed nesday
Ġl id
Ġp ed
Ġwas te
Ġhe at
Ġsome where
ro sc
ĠC o
and a
ĠP aul
Ġca lend
Ġmail man
Ġshake s
Ġpray ed
Ġreg ret
Ġtool s
rosc ope
Ġcalend ar
l ow
Ġa w
im ed
Ġsa ving
Ġli ves
Ġme as
ĠW here
Ġno body
Ġold er
Ġad vice
Ġkeep ing
Ġsound ed
Ġz ebra
ol og
ĠGo d
Ġap olog
Ġremind ed
Ġsandcast le
it ation
el come
Ġcan e
You r
Ġfl ies
Ġany where
Ġra ise
Ġfree ze
Ġcho ice
Ġpri ce
Ġmyster y
Ġvehic le
Ġlawy er
e er
Ġt ax
he st
ĠS u
Ġr ushed
Ġsh one
Ġstar ts
Ġroom s
Ġlet ting
Ġsoft ly
Ġde ar
Ġshout s
Ġchair s
Ġbreak s
Ġhappen s
ĠGra ndpa
Ġinc lu
Ġcross ed
Ġimag ined
Ġcolour ful
Ġsuggest ed
Ġp itch
le x
all ey
ore s
ĠW iggly
ag gie
Ġeat en
Ġexcited ly
og n
ĠP apa
ĠG igi
Ġrest aur
Ġsmell s
Ġrepl ace
Ġrec ogn
ĠN ext
Ġchick ens
Ġsquee ze
Ġappl aud
Ġtax i
Ġrestaur ant
M ark
M ary
N ext
e or
Ġt ub
Ġf ile
Ġg ain
ind eer
Ġo live
Ġre indeer
Ġtre m
Ġran ch
Ġv alley
ĠC arl
Ġbro ccoli
Ġrain ed
Ġste am
Ġcont ent
app ing
Ġblow ing
eor ge
Ġ V
Ġe qu
ĠW ould
ĠW ednesday
Ġend ed
Ġdis hes
ĠSt e
arl ie
Ġmic roscope
Ġext ra
Y ay
Y uck
n a
Ġd are
er o
ut or
Ġe vent
Ġre ve
ec ted
Ġsp ade
Ġblue berries
Ġma ss
Ġhun g
Ġboun cing
Ġchew ed
Ġbark s
Ġsnee zed
Ġdelight ed
Ġtorn ado
Ġprep are
Ġfre sh
D aisy
W ill
t ain
v et
Ġt utor
Ġg ro
ĠF l
Ġmy self
Ġch ance
Ġpo ison
Ġhead s
Ġhop ing
gg y
Ġsco ld
Ġsett le
Ġrid ing
Ġarg ue
ĠB inky
ill ie
Ġop era
Ġv ac
Ġqu iz
Ġshr ugged
ĠFred dy
Re ady
Ġvac ation
Q u
Ġs uff
Ġb end
Ġwe ather
Ġse as
as is
Ġch ores
ĠE nd
Ġsk ill
Ġeven ing
ip ment
Ġflo at
Ġdis cu
Ġprin ts
Ġmiss ing
Ġba king
ĠSp ark
Ġent er
Ġgigg le
Ġburn ed
Ġshiver ing
Ġequ ipment
Ġdiscu ss
n oon
Ġm ention
Ġst y
Ġo asis
uc ture
Ġstr ucture
Ġafter noon
Ġpus hing
Ġfix ing
ac ked
Ġthank s
Ġinv itation
Ġprun e
Ġreve al
k y
he art
in king
Ġd em
Ġpl aced
ĠL illy
Ġso cks
Ġgra nd
Ġwr iting
Ġhill s
Ġperf ume
Ġspot s
Ġthrow s
Ġthrow ing
Ġpuzz les
Ġtrust ed
ĠU nder
Ġyaw ned
Ġbump ed
A nn
s ity
Ġl uck
Ġm all
an a
ĠM ike
Ġpar ts
Ġtra cks
Ġbel ow
ott en
Ġcoat s
Ġcap tain
Ġbean s
Ġins isted
" ,
B uddy
C h
e f
h appy
Ġs igh
ĠM e
Ġse w
Ġcar ed
Ġshow er
Ġshould er
Ġstick y
Ġfollow ing
Ġbright er
Ġsweet heart
Ġcla w
que aky
Ġprin ted
Ġpast el
A ll
N ot
m end
v a
Ġp anda
om mend
ĠB ow
Ġex pect
Ġun happy
Ġgre edy
pe edy
Ġteach ing
Ġrec ommend
Ġimpress ed
ĠU n
Ġpun ish
l ook
ĠH ave
ĠH oppy
Ġbe g
if orm
Ġun iform
ĠR o
ation s
Ġdeep er
Ġexp er
ugg age
Ġcand les
J enny
l p
n ce
o of
Ġto ur
Ġl uggage
Ġhe n
en ry
Ġy ucky
Ġwe ight
Ġsc ore
ĠE ventually
ĠC he
Ġcu b
ĠP enny
Ġcla pping
Ġeas ily
Ġspark led
Be fore
Ġsplas hing
Ġspray ed
Dad dy
S urpr
Ġs ir
ar nt
ĠHe lp
Ġle arnt
Ġche cked
Ġfollow s
Ġste el
itten s
Ġlemon ade
Ġignor ed
Ġwhisp er
Ġdestroy ed
Ġrac ing
look ing
M imi
h ood
Ġw igg
Ġf urn
it ure
ar i
ĠS usie
ri age
Ġup stairs
Ġse co
ec ting
Ġfr o
Ġsp r
uc ked
Ġch irp
Ġbu ried
ĠWhen ever
ĠO live
ang es
Ġchee k
Ġworm s
Ġvan ished
Ġsell ing
Ġscatter ed
Ġperm it
Ġtrem ble
Ġfurn iture
Ġseco nd
W elcome
i ki
Ġc ree
ĠI s
ent s
Ġj ail
Ġre ef
uc t
Ġv room
Ġsor ting
Ġbet we
Ġbad ly
Ġwhist led
Ġstre ng
Ġjog ged
Ġent ered
ĠSnow y
Ġdem and
Ġcree k
Ġbetwe en
Ġ ing
Ġw re
Ġl ec
id es
Ġth umb
Ġr ush
Ġexc la
Ġpa id
Ġqu ite
Ġhop es
red ient
Ġcount er
Ġmar ble
Ġpoin ts
Ġbri cks
Ġsupp ly
ĠFro ggy
Ġmass age
Ġsty le
Ġclaw s
Ġing redient
Ġlec ture
Ġexcla imed
Ġb other
Ġp ort
ĠS queaky
Ġr ow
Ġgr ant
Ġclimb s
Ġhurt ing
ĠP r
iz es
Ġcut ting
Ġpet als
Ġseat s
Ġneighb our
Ġscr atch
Ġbreat he
Surpr ise
Ġstreng th
g es
Ġt ug
ĠS m
ĠS peedy
ĠM ittens
The se
Ġall ow
Ġput ting
Ġcake s
Ġbear s
Ġrain ing
ĠWh o
Ġmar riage
Ġshop keeper
Al ice
ĠâĢ ĵ
Ġmen u
Ġf urt
Ġwa ving
re sses
Ġhe el
ĠL ola
ĠA lex
Ġstar ting
Ġag re
Ġsn ail
Ġwork s
Ġforg otten
Ġprin ter
Ġwag s
Ġpig s
ĠGra ce
Ġexplor ed
Ġadm ired
Ġingredient s
B ecause
r ight
Ġh on
Ġd aisy
Ġwas hing
Ġpl ates
Ġso c
Ġsc oop
eci ally
Ġdiffere nce
ĠFin n
Ġfall en
Ġshin ed
Ġsail ing
Ġjog ging
Ġap art
Ġbal an
Ġeager ly
Ġdrop s
Gra ndma
Ġobser ve
Ġintrod uce
Ġwre ck
Ġfurt her
Ġt una
Ġd uring
Ġp up
at ched
ĠM aggie
Ġbl ood
th ank
Ġflo ated
Ġac ted
sp ecially
Ġstri ke
ĠSh aring
Ġsoc cer
Ġto ng
ĠT illy
re at
er ation
Ġplay s
Ġr ul
Ġe specially
ic er
Ġwor th
Ġfl apped
Ġhig hest
Ġbu zz
Ġbeaut y
ĠR emember
Ġmove s
Ġplan ted
Ġwar ning
Ġhor ses
ĠN ana
Ġfold ed
Ġwander ed
Ġyaw n
Ġstud ied
Ġincre ase
. .
B l
B ella
s hed
u esday
ĠT uesday
ĠL izzy
Ġo h
Ġre aches
qu ake
Ġwater ed
ĠEvery thing
Ġfam il
ĠK iki
ree ze
Ġcon f
Ġshout ing
que st
Ġking dom
Ġgi ven
Ġpresent s
Ġexam ine
Ġur ge
ĠOw l
E lla
F red
b or
i ately
m en
Ġb ak
ĠS ee
un ately
Ġso ak
ra ged
Ġbr ings
Ġsl apped
Ġsor ts
Ġsn apped
Ġtw isted
Ġdress ed
Ġland s
Ġquiet ly
Ġgift s
ĠCh arlie
Ġelephant s
Ġsol ved
Ġhar bor
Ġearth quake
Ġuniver sity
med iately
ĠCo co
Ġscold ed
L eo
Ġp ur
Ġin st
Ġhad n
ĠM illy
Ġre quest
ĠD ave
Ġsn ugg
Ġhear ts
Ġcra sh
Ġz igzag
Ġz ero
Ġsit s
omed ay
Ġcur led
Ġexper ience
Ġtong ue
e ster
p ted
s ed
Ġm ister
is ses
ĠL e
Ġwe st
Ġk isses
Ġop eration
Ġor anges
Ġcom f
ĠK ate
Ġim age
Ġtra ve
Ġplan ned
Ġslid ing
ĠBu bbles
Ġwis dom
Every one
Ġmem ory
Em ma
ester day
d o
e ath
r ise
Ġt ide
Ġs izes
Ġs omeday
Ġli cks
Ġwor se
Ġpret t
Ġpa used
ĠG ood
ĠFin ny
Ġfield s
ipp ing
Ġatt ached
Ġboun cy
Ġstuff ed
Ġsquee zed
ĠRu by
Ġskill s
Ġrul er
' ve
W oof
m m
Ġs ince
Ġc ape
Ġm ama
at ie
or ies
ad ed
Ġsh ot
ĠA bby
Ġre lease
Ġman age
Ġsor ted
Ġide as
Ġapp ear
Ġcatch ing
Ġpull ing
Ġimag ination
Ġcolour s
Ġacce pted
Ġencou rage
Ġsuff er
H a
Ġb ones
Ġto night
ĠT oto
Ġd ried
Ġm ice
ĠB op
Ġnew s
Ġpe arl
Ġpe aches
Ġim mediately
ĠR ock
Ġatt ention
Ġwelc omed
Ġblanket s
To day
Ġzoo keeper
Ġtwir led
Ġmeas ured
W ith
h ouse
i ppy
y th
Ġt ucked
ĠS ky
st ers
ĠB ee
ĠM illie
ind y
Ġle ather
Ġsp ike
Ġsun rise
Ġcall s
ĠP ip
ct ion
Ġrabbit s
ĠR os
ĠG eorge
Ġclose ly
Ġwag ging
Ġwhist ling
Ġcelebr ated
Ġmel ted
ĠBe fore
Ġsett led
Ġgrowl ed
Ġpeanut s
Ġseas on
R emy
c ery
Ġs i
Ġb le
Ġd resses
or ed
et ch
ĠH o
ĠM o
Ġdown stairs
Ġgl o
Ġqu ack
ip s
Ġrem ained
Ġour s
Ġtast es
Ġfire man
Ġwin ning
up s
Ġmar ried
ĠZ ara
Ġsteal ing
Ġdisag reed
Ġrece ive
Ġrecogn ize
Ġgro cery
r ank
w alk
Ġb ang
Ġto re
Ġto es
Ġp alm
is ing
ĠS und
ĠH ope
Ġin f
Ġshe d
Ġso aked
Ġtre mb
ĠW ally
Ġstr o
ĠP at
Ġz ipped
Ġwood en
Ġem er
Ġunderstand ing
Ġside walk
fort unately
Ġeas ier
Ġstir ring
Ġsur round
Ġsaf ari
Ġpun ished
ĠCl ara
Ġmem ories
Ġlip s
ĠSte ve
Bl ue
Ġsnugg led
Ġglo ves
ĠSund ay
B ird
d ing
Ġis n
ic ing
Ġback pack
Ġsee ing
Ġran g
dd y
ick y
ĠR ed
Ġbre aking
Ġsnow ball
Ġhit s
Ġba ked
Ġstra ight
Ġpotato es
Ġcollect ion
Ġcreature s
ĠFo x
Ġencou raged
Ġuniver se
ĠDan ny
yth m
O k
P eter
i en
r r
Ġl ung
ĠH enry
ĠA va
op s
ĠJ ess
Ġfl ap
Ġgr in
Ġoff er
ĠR ay
Ġflo ating
Ġra ised
Ġring ing
Ġacorn s
Ġpir ates
Ġgaz ed
Ġped al
ĠSu zy
ĠSm ith
Ġtremb ling
L isa
b les
e ep
s ing
Ġw ob
Ġb ab
it es
Ġp ad
is dom
Ġher s
ĠB aby
ch ie
Ġsp it
Ġal right
Ġbr us
Ġfl at
ap ed
Ġpe bbles
ĠE ach
Ġshould n
Ġwait s
Ġkit es
Ġsho pping
Ġfire f
Ġbit es
Ġland sc
Ġmus cles
Ġcraw ling
Ġkick ing
Ġrelax ed
Ġunl ocked
Ġfirework s
Ġinclu de
Ġbab ies
W ould
Ġs imp
Ġd ared
or ted
Ġwe b
ĠM andy
ic orn
Ġun icorn
Ġwat ches
Ġapp ro
Ġbra in
ĠZ igzag
igg ing
ĠRob by
ĠFo llow
Ġfamil ies
Ġble ed
k ins
t her
Ġb reeze
Ġd igging
id s
ĠS un
et y
all en
Ġk itty
Ġgirl s
Ġex it
ĠJ ames
Ġch allen
Ġop in
Mom o
Ġkeep s
Ġbed s
Ġdr inking
Ġrest ing
Ġtall est
Ġmat ched
Ġmouth s
Ġvis ited
Ġpet ted
Ġchew ing
Ġsaf ety
Ġshadow s
Ġsne ak
Ġkneel ed
Ġinst r
ĠRos ie
l er
u zz
Ġ vel
re c
Ġl ined
ĠThe se
is hing
Ġn one
ĠS low
Ġplay time
Ġst itch
Ġwe ighed
ĠM el
um es
ell e
Ġla id
Ġmu ddy
ish y
Ġv et
Ġunder ground
ĠK ing
Ġamaz ement
ĠZ oe
Ġpile s
Ġser ved
Ġstudy ing
Ġord ered
Ġsil ence
Ġweep ing
Ġdisag ree
ĠMar ia
Ġcartoon s
Ġvel vet
! '
T r
Ġn apping
Ġg ust
or al
ĠL ucky
Ġli ck
!" ,
Ġtw ink
Ġby e
Ġnow here
Ġapp rec
av id
Ġwin ner
Ġset ting
Ġmix ing
Ġsign s
Ġroad s
Ġtreasure s
Ġcr unch
Ġspoon s
ĠN ot
Ġvan ish
ĠSomet hing
Ġcost umes
Ġrepe ated
Ġroot s
Ġlandsc ape
Ġapprec i
. '
Y um
a ved
c oon
o ved
r s
Ġ Qu
Ġs ip
Ġs ix
ĠT ony
Ġhapp iest
ĠL ater
ĠB ree
Ġj azz
ĠW isdom
Ġstr ang
Thank s
iz ing
Ġimport ance
Ġvoice s
Bob by
Ġsister s
John ny
Ġpet s
Ġperfect ly
Ġpin ched
Ġdecor ated
Ġdecor ations
Ġsaus ages
Ġrh ythm
ĠBoun cy
Ġur ged
Ġemer gen
S p
Ġw ink
ĠT ed
Ġwa ist
Ġl ily
Ġd ire
Ġp ra
ĠH arry
um ble
Ġfa sh
Ġlet s
Ġcle aring
oy s
Ġdraw s
ĠO ut
Ġres ult
ĠPe anut
Ġguess ed
Ġknight s
Ġpattern s
Ġprep ared
Ġmention ed
Ġagre ement
Ġinf ant
Ġfash ion
D og
H appy
i ers
he llo
om ing
en a
ir ts
Ġth rill
Ġbe ard
ĠL iz
ĠB oth
Ġkn own
Ġno on
ss ible
ĠF rank
ist en
pl ash
Ġturn ing
Ġour selves
Sam my
Ġmoment s
Ġph ot
Ġmark s
Ġeag le
Ġhur ried
Ġesc aped
Ġadm ir
Ġscr u
Ġpoem s
Ġwaff les
Ġspr ink
Ġcrunch y
Ġstrang ers
J en
M oral
S ophie
p lease
z en
Ġf etch
it ies
Ġl imes
Ġgo als
ĠW atch
Ġbr id
Ġex pected
ant ly
Ġpe el
ĠC ar
Ġgr an
Ġbrave ly
Ġcra shed
Ġbeh aved
Ġri pped
Ġforg i
Ġru in
sh ip
Ġbow ed
Ġpillow s
Ġsold iers
Ġlog s
Ġdisturb ed
Ġspend ing
Ġcudd led
Em ily
Ġapolog ized
Ġfro zen
ĠPr in
Ġgrin ned
C at
d ed
i ved
t ory
Ġl ines
is hes
Ġg ained
Ġhis tory
ve st
Ġkn elt
ĠD id
udd les
Ġdad s
ĠC uddles
ac ob
Ġgu y
ĠJoe y
Ġben eath
Ġcoll ecting
Ġmatch ing
Ġfis hing
Ġstrugg le
Ġemergen cy
Ġphot os
W atch
u d
Ġt ext
Ġp ies
om as
Ġhe s
ar th
ĠH op
Ġit em
Ġbe at
ch oo
Ġso re
Ġso ared
ĠIt s
Ġme ow
Ġsk ipping
Ġsl ice
ct ly
Ġtra pped
Ġwarm th
Ġrest ed
Ġwonder ing
Ġbuild ings
Ġdragon s
Ġres p
Ġdrink s
Ġansw ers
Ġcoll ected
Good bye
Ġburn ing
ĠJo sh
Ġbeg ged
ĠRock y
Ġchallen ge
Ġbrid ges
Ġtext ure
D ucky
a les
ĠH appy
Ġth reat
Ġli ed
ĠB o
ĠB ug
Ġsc aring
Ġag o
Ġkind ly
Ġcrab s
Ġscream s
And y
Ġstamp s
Ġscr atched
Ġwigg le
Ġsimp le
Ġappro ached
Ġopin ion
Ġpra ised
M iss
b ug
h ind
u ry
it i
ut ter
Ġe ast
Ġbo om
ake s
ic a
Ġtheir s
Ġbr ushed
Ġbl ink
Ġte asing
ĠK atie
em b
Ġlady bug
Ġwonder s
Ġspark ling
Ġgather ing
ĠSt op
ĠSt itch
Ġgold en
Ġneighbor hood
Ġtwig s
Ġolive s
Ġcomf y
Ġscru bbed
E ventually
l ier
m are
z ing
Ġt im
Ġf ed
in o
Ġin vest
Ġbe amed
Ġst ing
ĠL ou
Ġe ff
Ġan n
Ġro pes
ĠD are
Ġsl im
Ġstr ings
bb ing
Ġshould ers
Ġbro om
Ġjo king
Ġrem emb
Ben ny
Ġnight mare
Ġteac hes
ĠCat ty
ĠBe ing
Ġcop y
Ġmuff ins
Ġherb s
Re ally
Ġgaz e
Ġgran ted
Ġinvest ig
Ġrememb ers
M mm
P oppy
S andy
w h
Ġa we
Ġd ot
an ny
ĠH enny
Ġhis sed
ĠI zzy
riend s
ad os
ĠM ay
Ġsh ock
ue st
Ġloo se
ur ry
Ġdog gy
Ġro aring
Ġal ien
Ġeat s
Ġgre y
og o
Ġtw in
Ġhard ly
ĠP inky
Ġwr ites
Ġhead ed
Ġswim s
Ġair pl
Ġcre ated
os ed
Ġzoom ing
Ġtrip s
Ġspark le
Ġpart ies
Ġact iv
Ġglow ed
Ġpencil s
Ġmarch ing
ĠSome one
Ġref u
Ġrecord ed
ĠAl ways
Ġavoc ados
ĠMiss ile
Ġarg ued
Ġsne aked
Ġrece ived
Ġped als
ĠSpark y
Ġcub es
Ġbrus hes
Ġthrill ed
Ġslim y
Ġinvestig ate
U n
a h
i am
m other
u x
u ke
Ġt ugged
Ġw ed
Ġf ara
ĠT w
ĠT iti
Ġc row
Ġn icer
Ġg uest
ĠS qu
ĠS plash
Ġin ch
pp ers
Ġyou th
all ow
el vet
Ġlo ving
Ġare a
ul ie
ĠF irst
Ġdec ides
ĠC indy
Ġma ster
Ġstick ing
Ġrem ote
Ġrem oved
Ġkeep er
ĠDo do
Ġsweet ies
Ġste ep
Ġpot s
Ġmar bles
Ġwear s
Ġheal ed
Ġscream ing
Ġjewel s
Ġrad ishes
ĠAnn ie
Ġcheer ing
Ġsupp osed
Ġdest ination
Ġlead er
Ġmountain s
Ġstretch ing
Ġmelt ing
Ġstud ents
ĠâĢ ĺ
Ġchirp ed
Ġbalan cing
Ġtrave led
Ġeff ort
ux ury
Ġfara way
C l
J ames
O llie
T ime
l oe
Ġ Yes
he e
Ġh itting
Ġc ough
Ġha ted
ĠS ad
ĠM on
ĠM oon
Ġpr op
Ġsl ed
ĠC ra
iss ion
Ġyell ing
âĢĿ .
Ġtri cked
Ġreal ize
Ġmon sters
Ġown ed
Ġsit u
os ity
Ġpol ished
Ġsnake s
Ġbucket s
Ġdes er
Ġpray ing
Ġclap s
Ġstri pes
Ġdeliver ed
Sh h
Ġreveal ed
Tr ue
B oo
E x
b oo
j am
Ġ 1
Ġ Once
ĠT una
Ġl uxury
Ġc rew
Ġbe side
ĠB oo
ĠA n
Ġse ag
Ġgir aff
Ġfr ost
Ġman e
Ġfa ced
ĠJ acob
Ġtal ent
Ġpar ked
Ġstay ing
Ġopen ing
Ġwhere ver
Ġcut s
av i
Ġcontin ue
Ġear lier
Ġsecret s
ĠCh icky
Ġseem s
Ġfear s
Ġsaf er
aw s
Ġtick le
Ġcomplain ing
Ġprov ided
Ġperm ission
Ġmeas uring
ĠV elvet
Ġbak ery
Ġseag ull
Ġgiraff es
' .
R o
R ex
R ob
c us
h a
m ies
u es
Ġb are
in t
is ty
es ome
Ġre le
if i
ust y
ĠD uck
ĠD avid
ĠE arth
Ġwind y
Ġtail s
Ġdark er
Ġru le
Ġtouch ing
Ġpaint s
ang ing
Ġact ing
Ġact ions
Ġact ually
Ġpan s
Ġcand ies
Ġdisco very
Ġfeed ing
Ġhero es
Ġhorn s
Ġshoot ing
Ġswe at
Me ow
Ġmagnet s
Ġdust y
Ġstrugg led
Ġaw esome
Ġpup il
Ġbleed ing
Ġadmir ing
Ġrefu se
Ġprop er
J o
a ster
d ies
i ar
l s
n ers
p ie
Ġw iz
Ġto ss
ou ch
Ġd ied
Ġwas ted
or a
Ġon wards
Ġli qu
Ġwant ing
ĠB ye
Ġo be
ĠW ater
uck ily
ĠD ino
Ġv ict
ant a
Ġfood s
Ġtw isty
Ġgl asses
ĠK ids
Ġbed time
ĠR e
Ġrest ored
Ġcont ain
Ġcont est
Ġcre ation
Ġcomp any
Ġshr ug
Ġpatient ly
St ay
Ġval ued
Ġteam work
Ġspray ing
Ġdinosaur s
Ġflag s
Ġneighb ors
Ġspace ship
Ġtun e
Ġhelmet s
Ġweek s
Ġsne aky
Ġstrugg ling
Ġaw ake
ĠRo ver
Ġneighbour hood
Ġprett iest
Ġsurround ed
Ġhes it
Ġtim er
Ġwed ding
Ġliqu id
E w
G eorge
T iny
b and
g o
Ġ X
Ġa chie
Ġs ings
ĠS anta
le e
am ie
ri an
Ġst are
ĠL ike
ad s
ent y
Ġcat ches
Ġpr ide
as hed
Ġpo king
Ġche f
Ġgl itter
ĠK ay
ĠK eep
Ġqu acked
Ġwork er
Ġpaint ings
Ġcre pt
Ġpol ishing
sc reen
ĠSp ring
Ġpay ing
com pl
Ġbloom ed
Ġpro ject
Ġload ed
Ġscoot ers
Ġsight s
Ġsucceed ed
Ġins ist
Ġrecogn ized
Ġsi ren
ĠSlow ly
Ġappreci ate
ĠQu ick
Ġfrost ing
Ġobe y
D uring
P ete
P aul
R emember
n ie
Ġh i
ay s
Ġm es
of ia
Ġbe ads
ĠL enny
ĠL uke
Ġe ight
ĠA lly
Ġse ven
ul p
Ġfa sc
ĠF ifi
ĠJ essie
Ġfl av
Ġfl utter
ĠD r
Ġpe ppers
Ġtr aded
Wh iskers
Ġcom m
ĠEvery day
uff in
Ġcon es
Ġac compl
Ġpat ience
Ġcomp le
Ġpre c
ĠBl ink
Ġbring ing
Ġdi ving
Ġsplas hes
Ġcelebr ation
Ġblow s
Ġbloom ing
Ġscatter ing
Ġcush ions
Ġthu d
Ġpengu ins
Ġribb ons
Ġpear s
Ġmitten s
Mr s
Ġnail s
Ġresc ued
Ġpassport s
ĠFro g
Ġsigh s
uct ions
Ġdemand ed
Ġhon k
Ġscoop ed
Ġbalan ced
.. ."
Ġinstr uctions
Ġguy s
Ġairpl ane
Ġfasc in
A choo
B ad
F o
F irst
H ave
J ake
L una
O ur
U h
Z oomy
b ig
d ie
l ict
z ie
Ġb oo
Ġto dd
Ġp ause
le ts
ig gy
ĠM uffin
Ġo at
Ġsad ness
ul ts
Ġstar fish
Ġsc ales
Ġback ward
Ġgood night
Ġhome work
ĠF riends
Ġlearn s
Ġun f
Ġus ual
Ġunt ie
Ġoff icer
ĠG ogo
Ġdri ves
Ġexplore rs
Ġmiss ion
Ġrel uct
Ġvisit ing
Ġvill ag
Ġlay ing
Ġorgan izing
Ġprot ected
Ġprot ecting
ĠBe hind
Ġref re
Ġexam ined
Ġremind er
Ġapolog ize
Ġapplaud ed
Ġfro ze
Ġconf lict
Ġbak er
Ġpur red
ĠLe ave
Ġwiz ard
S omet
T weet
a a
a ctly
b l
j o
r ance
Ġ Q
Ġw ound
Ġd ipped
Ġc ause
er n
ar ter
id ers
or ds
Ġy esterday
st ep
ĠL ove
ĠM oo
Ġsm arter
Ġhelp ers
ĠA m
Ġsmall est
Ġwhat ever
Ġch anging
ĠE lephant
Ġstr uck
ĠTh omas
bb led
Ġsmile y
Ġcra cked
ĠG r
ĠG et
ĠG reen
Ġwin s
Ġdrag ged
Ġmus cle
ĠCh loe
ĠJen na
Ġgun s
ĠBe ep
Ġlead ing
ĠPe pper
Ġrecord ing
Ġshiver ed
Ġfigure s
Ġrid es
Ġspell s
ĠPipp a
Ġplanet s
ĠY esterday
Ġpastel s
Ġprett ier
Ġspike s
ĠHo pper
ĠJess ica
Ġfiref ight
Ġbare ly
Ġrele ased
Ġvict ory
big ail
Ġtodd ler
Ġreluct antly
A n
J erry
M illie
S illy
T eddy
h o
n ies
Ġb ank
Ġd am
Ġd ie
Ġc ous
ĠS ure
an na
ĠH ippy
Ġr ings
Ġst ern
Ġsh irts
Ġcl ick
Ġbec oming
Ġex actly
Ġsun light
Ġany time
Ġhug ging
Ġv ent
Ġun ited
Ġsto le
ĠR abbit
Ġbeh avi
ĠG ir
Ġfire men
Ġbowl s
Ġrocket s
Ġcover s
Ġinv iting
St e
Ġpack ing
Ġdeliver ing
Ġrep ly
ĠRob ert
ĠBet sy
Gra ndpa
ĠMar ie
Ġwarn ings
ĠMe g
ĠRo llie
ĠChe w
Ġbuzz ing
Ġsprink les
ĠPrin cess
Ġann oy
ĠSqu irrel
jam as
Ġprec ious
A h
M illy
O ops
S u
b ly
e ah
f ied
r ink
t en
u ly
Ġs ense
Ġw id
ĠT op
ĠT urtle
Ġp ins
id ing
ir m
ĠH or
ĠB y
ĠB ecause
Ġwere n
ue en
Ġfa ult
Ġco coon
ĠJ illy
ĠJ oy
Ġch ips
Ġwho se
Ġgot ten
ĠD ara
Ġpo ssible
Ġv ines
Ġpe as
Ġpe ered
ĠP o
Ġpa jamas
Ġjo ked
Ġar gu
Ġarri ve
Ġspark les
ĠSt ar
Ġprince sses
Ġwrap s
Ġmask s
Ġmis ses
Ġref le
Ġsend ing
Ġcompl ained
Ġquarrel ing
ĠRob o
Ġticket s
Ġsepar ated
Ġcudd le
Ġsport s
Ġintrod uc
ĠUn fortunately
Ġwigg led
Ġsnowball s
ĠBug gy
Ġactiv ities
Un fortunately
Ġsitu ation
Ġvillag ers
ĠQ ueen
Ġargu ing
B uzz
D ave
L illy
M ar
M andy
O r
R u
b ric
d am
Ġ ĠĊ
Ġs ides
Ġh us
Ġf irm
ĠT ara
re y
Ġp out
Ġg ri
at ches
an ie
Ġth ro
Ġpl enty
Ġbe lly
ĠL ena
ĠB arry
Ġsp ins
Ġsp iders
Ġfa bric
ĠW ant
ĠF ishy
Ġsome body
Ġgre et
ĠE n
Ġtr uly
Ġte ased
Ġsn atched
Ġfore head
Ġfar ther
Ġma iled
Ġbra nd
Ġtra ctor
Ġca used
Ġwo of
Ġyell s
Ġcuri osity
Ġblock ing
Ġper ched
Ġbit ing
Ġnap s
ĠZ ipper
Ġstart led
Ġpocket s
Ġbell s
Ġrainbow s
Ġpath s
Ġbounce s
Ġkick s
ĠSt ay
Ġscar ves
Ġgroup s
Ġmot ion
Ġdiscover ing
Ġtrick y
Ġpow ers
ĠFo xy
Ġgrowl ing
Ġitch y
Ġknock s
ĠSnow man
Ġimpro ved
Ġsuperhero es
cu se
Ġcudd ly
Ġtwir l
Ġincre ased
Ġchoice s
Ġgrand mother
ĠChe ss
Ġchirp ing
Ġrequest ed
Ġtrave ll
ĠHo ot
Ġforgi ving
Ġitem s
Ġproper ly
Ġcomple ted
Ġfascin ated
ĠGir affe
Ġwid ened
H old
L isten
P e
Y eah
e ff
v in
Ġb ur
Ġf ut
in ing
Ġd ar
Ġn ine
ĠS ay
an es
ĠH olly
se ek
Ġso aring
Ġso bbed
Ġne ither
ĠW oo
Ġwor ries
Ġsw it
Ġsw oop
Ġrock ing
ink le
Ġhand ful
Ġus ually
ak er
ĠP ut
ĠP atch
Ġlisten s
th ough
Ġbeh aving
Ġri p
Ġprom ises
ĠO ak
Ġreach ing
Ġpol ar
Ġpoin ty
Ġstand s
Ġshr inking
Ġpop s
Ġcreat ing
Ġdi ved
Ġimag es
Ġchase s
Ġgigg ling
ĠBrown ie
Ġfold ing
ĠTr uck
Ġpolice man
Ġtunnel s
ĠSh adow
Ġcurtain s
Ġhall way
Ġreward ed
Ġobser ved
ĠSpark le
Ch arlie
ĠUn cle
ĠPr ince
Ġhon ked
Ġbuzz ed
Ġdire ction
Ex cuse
Somet imes
step s
Ġthro at
Ġfut ure
= =
C ar
H enry
M aggie
S unny
b ie
c akes
l ay
n k
t uce
y ond
Ġa st
ed s
Ġd ent
Ġc ent
Ġc ust
Ġsa nk
id o
Ġg ross
Ġbe yond
un e
ĠM ouse
Ġbo dies
Ġre pa
ur ried
Ġcan s
Ġsp ong
Ġstar ing
Ġsc urried
Ġla p
Ġno ses
Ġevery day
ĠF or
ab ella
as on
Ġch op
Ġch uck
âĢ Ķ
Ġun p
Ġlet tuce
Ġunt ied
Ġstay s
ĠG ina
Ġpretend s
ĠO lly
Ġsees aw
Ġnest s
Ġdro pping
Ġgrow s
Ġcont ro
Ġnap kins
ang led
Ġcorn ers
igg ie
Ġinterest ed
Ġav o
Ġcelebr ating
Ġvan illa
Ġgas p
Ġwhisp ers
ĠHow ever
ĠBird ie
Ġbrace lets
Ġmov ies
Ġlean ing
Ġbase ment
Ġtask s
Ġcomplet ely
Ġgrowl s
low ers
Qu ack
Ġsuff ered
Ġagre es
Ġsi bl
Ġfiref ly
ĠNot hing
Ġdeser ve
Ġhus band
Ġcust om
Ġspong e
Ġsibl ings
? '
B u
B ig
B unny
L ola
R un
S usie
V ery
W hee
e ed
p ite
it ely
Ġm oo
Ġm erry
ĠS ofia
ut ty
Ġy um
ĠM ix
Ġlo sing
Ġback wards
Ġfa ct
ĠW ink
Ġran ger
ile y
ĠJ olly
ĠJ ulie
Th ose
Ġv owed
ĠE x
Ġsl am
Ġhow ever
ĠC ow
Ġte aring
ĠP am
ĠP ine
ĠP up
Ġsqu ishy
Ġbra very
Ġdoll ar
ĠWh ist
Ġsing er
joy ed
Ġsweet s
Ġread s
ĠO ur
Ġrepl aced
Ġpot ion
oun ce
Ġpat ted
Ġkey s
Ġsail s
ĠN ice
Ġpart ic
Ġspe aking
Ġpract icing
Ġsupp lies
aw n
Ġwis hing
Ġsquare s
Ġpump kins
Ġspread ing
Ġtick led
Ġbatter ies
Ġsurf ace
Ġpee king
Ch irpy
Ġconf ident
Ġwob bly
Dog gy
Ġdot s
ĠTw inkle
ĠCra b
Ġaccompl ish
Ġvent ured
ĠHor sy
Ġrepa ired
F ine
G reat
L e
L ulu
M ine
P ipp
S ome
Y ummy
c l
e al
f ly
f ather
Ġp ec
Ġn i
ĠS l
ĠS orry
or der
Ġplay ers
Ġr isk
Ġst ain
Ġst em
ĠB irthday
ĠB iggie
Ġmom mies
Ġas ide
Ġro ses
?" ,
Ġout do
ĠF it
Ġfl ames
Ġch oo
ust ed
Ġpo ster
ĠP aws
ct ions
Ġsoft er
Ġde al
Ġsat is
Ġuse s
Ġwork ers
Ġri pe
Ġste ady
Ġlight er
ĠO l
Ġroll s
Ġplan ning
Ġfill ing
Ġcount s
Ġsnow men
Ġmar ked
ĠN ick
Ġfoot steps
Ġcalm ed
Ġpour ing
Ġent ire
Ġent rance
ĠWith out
Ġdecor ating
Ġarrow s
Ġnecklace s
Ġscr atches
Ġdolph ins
iv i
Ġwander ing
Ġcompetit ion
Ġwire s
Ġshort s
Ġminer als
Ġstud ent
Ġrot ting
Ġkne es
ĠSu zie
Ġspr ang
Ġcomf orted
Ġstro ked
Ġpad d
Ġpad dle
Ġtwink ling
Sp ike
Ġguest s
ĠMon ster
Ġchef s
Ġrefre shed
Ġfirefight ers
Ġrefle ction
Ru by
Ġgri p
ĠEn joy
Ġdent ist
Ġunp acked
B ear
D olly
E llie
G et
K atie
L izzy
L uckily
M ike
O ut
S n
T ake
Z oom
u ri
v room
x ie
z es
Ġt iss
Ġt angled
Ġw ow
Ġb unch
ay e
Ġm ood
er cy
Ġhe av
ĠS w
ĠH ur
Ġth ird
ri xie
Ġbe am
Ġr ising
Ġst ool
st y
oft y
Ġnot es
ĠB ook
ĠB rian
se qu
ent ly
Ġshe lves
el a
al ph
ĠA unt
ĠA bigail
Ġo pp
Ġle ast
Ġex ha
ile s
ĠJ eff
Ġfl apping
Ġch at
Ġknow led
ĠD izzy
Ġwater ing
Ġtr amp
Ġover joyed
ĠP u
Ġstrong est
Ġsing le
Ġwait er
Ġremember ing
Ġcon n
Ġcon sequ
Ġhid er
Ġste er
Ġclose s
Ġwin ked
Ġsign ed
Ġpig gy
Ġel bow
ĠZ ee
Ġpass ing
Ġpast ries
br ush
Ġbat hing
ol ine
Ġtouc hes
Ġdes ert
Ġrec order
umb ling
ĠAnn e
Ġseek er
Ġsupp orted
ĠSt ella
Ġpray er
Ġdrum s
Ġtowel s
Ġburn s
Ġrelie f
Ġperform ed
Ġlollipop s
ĠTweet ie
Ġsurf ing
ĠJo jo
Ġshovel s
ĠY awn
Ġinclu ded
Ann ie
Ġbeg in
Ġcheek s
ĠGood bye
Ġlick ing
Ġresp ons
Ro ar
Ġflav or
Fo llow
Ste ve
Ġchuck led
Ġoutdo ors
Ġknowled ge
Ġtramp oline
Ġconsequ ence
D anny
H arry
J ump
M ay
P enny
R ose
a el
e en
f all
n o
o ssible
Ġ icing
Ġt urt
Ġa ff
Ġa imed
Ġto aster
in ny
is ions
Ġsa le
ĠS c
ĠS ofty
Ġth orn
Ġr umble
Ġr usty
Ġst ew
ĠL au
ĠB eth
ĠB elle
Ġro cked
Ġsp at
Ġbr u
ĠF ido
ĠJ ones
ĠJ amie
ĠJ anie
Ġsw ords
Ġbl own
Ġdec isions
rom ise
ber t
Ġend s
ĠP h
aut ious
th s
Ġimp ossible
Ġrain s
Ġdark ness
Ġtable s
Ġdanc ers
Ġfair ies
ĠO xy
Ġbar s
Ġjoin ing
ĠZ iggy
Ġbath s
Ġwhist les
ich ael
Ġfit s
Ġkitten s
ĠN utty
Ġmind ed
Ġmach ines
Ġpray ers
Ġmatter s
Ġship s
Ġwip es
Ġmushroom s
Ġsque aked
Ġsnee zing
Ġadd ing
Ġload ing
Ġornament s
Ġhuman s
Ġtwir ling
ĠV ivi
Ġsew ed
Ġsurround ings
Ġbackpack s
rr r
Ġinstr um
Ġforgi ven
Ġ1 0
ĠRe g
Ġhesit ated
Ġachie ve
ĠKay lee
Ġcous in
Ġintroduc ed
Ġdar ling
Ġswoop ed
Ġcontro l
Ġpartic ular
uri ous
ĠHur ricane
Ġexha usted
Ġconsequence s
Ġturt les
A lex
B et
B aby
C o
c ie
c ited
g ers
h i
n eath
o ke
o dy
s m
s hing
y ou
nd y
ĠT oys
Ġn uzz
ll e
Ġg oo
Ġg ee
Ġu nd
ce s
Ġst ung
Ġst umble
ĠL iam
ad ing
ad es
ĠM am
ĠM ill
ĠM ild
ch y
Ġne are
ter s
Ġgo bbled
Ġcar ts
ĠW o
Ġno dd
Ġal oud
ĠF aye
ĠJ u
ab el
ep t
Ġyour selves
Ġfe ver
ĠD ina
Ġun s
Ġsk irts
ĠTh ose
Ġtal ents
Ġfar t
ĠP ink
Ġwr ist
Ġhead ing
ĠJack y
ĠO ther
Ġslow ed
Ġtight er
ĠTo ot
Ġgu ide
Ġheal th
ĠJen nie
Ġdoctor s
Ġcr umb
Ġrob ber
Ġspark s
Ġsal ty
Be ep
Ġforget s
Ġpri ck
ĠSp irit
Ġswimm er
Ġtest ed
Ġwake s
Ġtwist ing
Ġclown s
Ġfrown ing
Ġghost s
Ġer ase
ĠSh iver
Ġjacket s
Ġgrace fully
Ġfork s
Ġangel s
Ġdeterm ination
Ġbump s
Gra ce
Ġlend ing
Ġloop s
Ġcur ly
ĠRu dy
Ġregret ted
Ġgrand father
Ġsew ing
Ġdire ctions
allow een
ĠSad ly
Ġmes mer
Ġslam med
Ġheav ier
Ġgee se
Ġnodd ing
- -
E ven
E lly
F or
K im
K eep
L ina
S ad
V room
f it
i el
Ġs y
Ġb un
Ġb umpy
ĠT e
ĠT ry
ĠT ippy
re verse
Ġd en
Ġc or
Ġc autious
Ġm ater
ĠS e
oo sh
ĠL ina
Ġli es
Ġe v
ĠM atch
Ġlo ses
Ġle ap
Ġout fit
ĠF le
ĠJ on
Ġsw ept
Ġsun screen
Ġfe ast
Ġpo s
Ġsk unk
Ġam ong
Ġunder neath
ĠC ro
Ġsn uck
Ġtw eet
Ġdon key
Ġmag pie
Ġbad ge
Ġgl ued
Ġdoll house
Ġwarm er
Ġdis ob
Ġhid es
Ġpaint brush
ĠZ ero
iver sity
ĠThank s
igg les
Ġhonest y
Ġact ive
Ġfle as
Ġsel f
Ġhope ful
ĠSt arry
Ġrub s
Ġsol ut
Ġmis chie
Ġperform ing
Ġcomb ed
ĠTr ust
Ġfrown s
Ġvide os
Ġple aded
Ġmodel s
ron aut
Ġcobweb s
Ġinsect s
Ġobject s
ĠFro sty
Ġslipp ing
Sh rink
Ġbreat hed
Ġyield ed
Ġcountry side
ĠSu ki
Ġrow s
.. .
Ġstro ll
.' "
Ġruin ing
ĠDid i
ĠSad ie
Ġsweat y
Ġannoy ed
Ġswit ched
Ġast ronaut
Ġavo id
Ġcustom er
Ġpec ked
Ġtiss ue
Ġfart hest
Ġcrumb s
B ow
B oys
C he
G ina
L ena
P ut
a ure
c c
f ted
r in
r up
r ops
Ġt ig
Ġt ipped
Ġa ud
Ġs way
Ġs ens
Ġb acked
ĠT am
Ġc ash
Ġm unch
ll en
Ġha lves
an s
an ed
or ing
ĠH old
ĠH alloween
Ġpl ain
il o
Ġr ather
ce pt
ĠL aser
ĠL isten
ad die
Ġdo d
ĠB all
ĠB ally
ĠB aa
Ġe arn
ĠM other
ĠM int
Ġsh own
el ia
Ġan ger
ĠA dam
ind rops
Ġas hes
Ġo cc
Ġre ver
Ġre ason
Ġtree house
Ġsc ra
Ġsc ulp
ĠW iggles
Ġag e
dd ie
Ġfl ight
Ġch ara
ĠD ay
Ġun w
Ġsl ither
ĠC andy
Ġafter wards
bb ie
Ġloud est
ĠP en
ĠP ercy
Ġad ults
Ġrain y
Ġde f
Ġcurious ly
Ġprin ting
Ġac he
Ġcream s
Ġslow er
Ġjoin s
Ġbuy ing
Ġplant ing
Ġdragon fly
Ġra indrops
Ġfan s
Ġvisit ors
ĠCh ick
Ġmark ers
Ġzoom s
Ġimag ining
Ġtrust ing
Ġignor ing
Ġlead s
Ġstuff ing
ĠAl ong
Ġremind s
Ġscr ub
io let
Ġsquee zing
Ġdesign ed
Ġknock ing
Ġblin king
Ġprevent ed
Ġgaz ing
Ġtip to
Ġinclu ding
ĠMe gan
Ġpur r
ĠDave y
Ġspit s
Ġmaster pie
Cl ara
Ġtalent ed
Ġdam age
Bu zzy
ĠWhist le
Pipp in
Ġrespons ible
Bet ty
Ġuns ure
Ġprick ly
Ġmater i
aure n
Ġtig ers
Ġsculp ture
Ġchara c
Ġmasterpie ce
' ."
C indy
D an
D avid
F ro
H urry
J azz
J ulie
K ate
P at
P andy
T ina
U nder
f ound
l en
p it
u ing
u de
w ise
Ġt in
Ġt id
Ġt ing
Ġs ill
Ġf reed
ĠT ia
ĠT rixie
it ion
it ches
it ude
Ġl ower
Ġc ott
Ġm aker
Ġm iles
ĠS ke
end y
ir a
am il
Ġpl ucked
Ġin sp
ĠI ndy
un o
ĠB ark
Ġfor m
ch ing
Ġso aking
al ed
ind a
are n
ĠW ake
ob ody
Ġevery body
Ġfl ipped
Ġab il
us ing
Ġch amp
ump h
ĠE d
ĠE lle
Ġam ount
Ġsurpr ising
ĠWe apon
Ġtw ice
pec ting
Ġbu ses
Ġover come
Ġche ers
Ġcolor ed
Ġsto pping
Ġsto len
Ġad ult
iss a
Ġfin s
oh ny
Ġtalk s
Ġcold er
ĠG ray
Ġduck ling
Ġtast ing
Ġru bbing
Ġbott les
os ite
!âĢĿ .
Ġband ages
ĠGra cie
ĠBlue y
Ġbow s
Ġdriver s
ĠN ear
Ġsour ce
Ġcaterpillar s
Ġjourney s
ugg les
ĠBr uno
Ġwip ing
Ġsol ving
Ġpres ses
Ġlif ting
Ġtwist s
Ġind eed
Ġtemp er
Ġremind ing
ĠU p
Ġweal th
ĠSh ake
Ġtire s
ĠSn ap
ĠSn uggles
ache l
Ġple asure
Ġsurf board
Ġpap a
Al ways
Ġcamp ing
Ġoy sters
Joe y
Ġrail s
cer ies
Ġgro ceries
Ġrecommend ed
Ġwob bled
Ġbrus hing
Ġtwink led
Ġtoss ed
Ġflutter ed
Ġunf amil
Ġwound s
Ġbehavi our
Su zy
Ġfirm ly
Ġtravell ed
ĠWoo lly
lay ing
Ġmoo ed
Ġaccomplish ment
Ġsatis fied
ĠOl iver
Ġpadd led
Ġopp osite
Ġneare st
Ġbun nies
Ġev il
Ġsolut ion
Ġaud ience
Ġocc as
Ġrever sed
Ġunw ra
Ġchamp ion
Ġunfamil iar
! âĢĻ
? !"
A m
A unt
A bby
B r
B ill
B ang
D ays
G u
J essie
L iz
N ick
O p
R i
T oby
a ver
b ut
c her
s on
w oo
Ġ ouch
Ġt y
ĠT ank
Ġl ump
Ġd ump
er m
Ġwas ting
am b
ĠH ook
ig hing
Ġin ches
Ġplay room
Ġwith in
Ġy elp
Ġr ays
ck y
Ġyou nger
Ġon ward
Ġon ions
all owed
itt ed
Ġe ch
Ġe ase
ĠM ichael
Ġfor ce
Ġsh oo
al ing
ide y
ĠA corn
Ġre fe
ur r
ic i
Ġsp ice
Ġsc ored
Ġback s
own y
Ġbec omes
Ġla pt
ĠW elcome
ĠW endy
Ġnew found
Ġco nd
ĠF ish
Ġfl own
Ġfl ip
Ġfl ock
ab ly
Ġsw ap
Ġsw allowed
as hes
Th omas
Ġch ar
Ġch os
Ġdec ision
ĠD usty
ĠC ally
Ġta pping
bb it
Ġgarden er
ĠK e
Ġpar ted
ĠP in
ĠR a
ĠR uff
Ġthr own
Ġwr itten
ng ela
Ġtop s
ĠJack ie
Ġbel ts
After wards
Ġgrass ho
Ġdri pping
Ġdri fted
Ġexplore r
Ġres pected
Ġres ults
Ġheal ing
Ġtrou bles
Ġrob in
Ġrobot s
Ġcir cus
Ġpeace fully
Ġban ged
Ġact ion
Ġforget ting
Ġpan cakes
Ġlift s
ĠBr ad
Ġshark s
Ġsque ak
Ġpige ons
Ġfig ured
Ġcolour ed
Ġfriendship s
ĠSh ow
Ġborrow ed
Ġguard ian
Ġautomobile s
Ġweek end
Ġsniff ing
Ġrepe ats
Ġrepe ating
Ġspeed ing
Ġtap ed
ĠCl a
Al right
Ġencou rag
Ġneat ly
Ġgoal ie
Ġstrip s
ĠY et
ĠY ell
Ġrac coon
ĠCo pper
Ġapolog ised
Ġtub es
Ġtrem bled
Ġseas ons
Ġpunish ment
ĠIs abella
Ġfamil iar
Ġstro ke
wh at
Ġswims uit
ĠTw o
Ġeffort s
Jo sh
ls a
ĠPo or
Ġpout ed
Pe ople
ĠEx cited
Ġcor re
Ġmischie vous
Ġcash ier
ĠSke lly
Ġinsp ired
Gu ess
Ri bbit
Ġech o
Ġrefe ree
Ġlapt op
Ġchos en
Ġgrassho pper
B ee
B essie
B arry
H op
J on
J amie
L ike
S oup
T ry
Z ara
c ope
f orm
h ive
h og
j i
m atch
m ates
o llen
r ily
r th
s a
t he
Ġ 2
Ġa im
Ġb ully
Ġto t
Ġh oo
Ġwa king
Ġl an
Ġl ent
Ġl amb
Ġhe ight
Ġn apped
im m
at ur
en ing
ig ning
Ġpl ot
ver s
ri er
ri ck
Ġplay house
Ġr ust
ĠTim e
Ġst itches
ĠL ion
ĠL uckily
Ġwe eds
Ġwe ighing
ĠB i
se ss
es pite
Ġsh ady
Ġsm ashed
el ie
Ġwh imp
ĠA pp
ĠA bbie
Ġre ct
Ġsc en
op es
ĠW illy
ĠW oof
Ġco ach
Ġco sy
ĠF ork
ĠJ ay
Ġsw ollen
Ġwill ing
Ġgra bbing
Ġneed les
ĠC D
Ġclean er
ĠP ill
ĠP izza
ĠP urr
Ġca w
ĠR ia
Ġwr ink
ac les
Ġsand pit
Ġcon s
Ġdraw n
Ġdress er
Ġsmell ing
Ġwin ners
Ġbee hive
Ġpat ches
Ġque ens
Ġsec ure
ĠCh a
ĠCh r
arm er
Ġpurp ose
ĠBl oom
Ġjoy ful
Ġarri ves
Ġshap ed
Ġwra pping
Ġspoon ful
Ġbell ies
Ġmoon light
Ġtea pot
Ġcross ing
ĠSt ret
Ġpack ages
Ġfool ed
ĠAl though
Ġguess ing
Ġcrack er
Ġliz ards
Ġrat s
Ġmill er
Ġspill s
Ġsniff s
Ġlibr arian
Ġlow ered
Ġknot s
Ġdesign s
Ġhaircut s
ĠCl oud
Ġenthusia sm
Ġpoke s
Ġlangu ages
Ġhedge hog
Ġbreat hing
ĠSte ppy
Ġgro aned
Ġinvitation s
ĠIs n
Ġbother ed
Ġbother ing
ĠSm oke
Ġpur rs
ĠKay la
Ġmes ses
Ġbehavi or
ĠPu ppy
Ġconn ected
Ġbegin ning
Ġthorn s
Ġbru ises
Co co
Ġnuzz led
ĠMam ma
Ġcautious ly
Ġdisob ey
Ġsens ation
Ġtipto ed
Ġspice s
ĠCla ire
ĠYell ow
rth ur
Ġlan tern
ĠFork y
B y
B rian
B ounce
P ip
P inky
R ay
Z ip
a iley
b a
e z
e el
f us
i ving
i bbles
i ky
r ig
t ock
y es
z oom
Ġ ill
Ġt um
Ġt ying
Ġt umbled
Ġw ider
Ġb om
Ġb itten
ĠT ake
ĠT ree
ĠT iger
ĠT idy
in itely
Ġwa ded
Ġd ip
Ġd aring
Ġc oug
Ġp on
im mer
Ġsa v
id dy
Ġg est
an et
an ced
le y
or ter
or king
Ġin j
ri e
ri ver
Ġbe aver
pp ies
ld y
Ġwe pt
Ġnot icing
ĠB umpy
se ed
ĠM an
ĠM op
ĠM ight
ĠM ag
ĠM ush
Ġmom ma
Ġk ings
Ġbird seed
Ġwh oosh
ĠA ngela
ill ed
ur render
ul f
Ġman ners
Ġcl icked
Ġcl ues
Ġsc urry
Ġme als
Ġla ces
Ġgood by
ĠF ire
ĠF armer
ĠJ ump
ĠJ em
Ġbl ast
Ġch anges
Ġcare s
Ġwater fall
ĠE lsa
Ġmo ons
Ġsl apping
Wh ich
ĠC omet
Ġfo cus
Ġdoor way
Ġche aper
Ġgl ared
iz on
Ġsqu aw
th at
Ġde ed
be ep
ĠR ain
ĠR ich
ĠR achel
ear s
Ġstore keeper
Ġhands ome
Ġcra ft
Ġmean ing
Ġreal izing
ĠDo ll
Ġcon vin
Ġmon ths
Ġbright est
Ġworry ing
Ġdance s
af y
ater pillar
ĠO ink
ĠO kay
Ġfill s
Ġjob s
Ġcow b
Ġshop s
ĠCh irp
arm en
Ġmin ts
Ġbelong ings
Ġcreat iv
Ġmark er
Ġprob ably
Ġhor izon
ĠN obody
ĠN ibbles
Ġser v
ert ain
ĠSp oon
ĠSp idey
Ġmind ing
Ġlar ger
Ġspring ing
Ġwis ely
Ġgigg les
Ġdestroy ing
Ġrelax ing
Ġstamp ed
Ġswe ep
Ġcrack ers
Ġgem s
Ġsniff led
Ġed ges
Ġstream ers
Ġaeropl anes
Ġenc ount
Ġlabel s
Ġmotorcy cles
ĠCl imb
Ġscrew s
Ġexerc ises
Ġstom p
ĠJo dy
Ġdisplay ed
ĠDan iel
Ġpinch ing
Ġfilm s
Sh aring
Ġbeep ed
ĠRu fus
ĠCo coa
Ġmass ages
ĠFl ame
ĠFl ora
Ġdiscuss ed
ĠMe owny
ĠUn iversity
Ġuniform s
Ġscratch ing
Fred dy
ĠLe afy
Ġencourage ment
Ġsuffer ing
Ġwob ble
ĠMel issa
ĠFrank ie
Ġadmir ation
Ġpeel ed
Ġresp ond
ĠLou ise
Ġactiv ity
ĠCra bby
Ġsweat ers
Ġinsist ing
ĠGr anny
anna h
Mar ie
Ġcent re
Ġcent er
Ġgasp s
ĠMix y
ĠBook s
Ġinstrum ents
Ġpos sess
ĠCro co
Ġdef initely
Ġencourag ing
Ġcorre ctly
Ġrect angle
ez i
Ġtum mies
Ġbom b
Ġpon ies
ĠMight y
ĠMush room
Ġgoodby es
Ġcreativ ity
, '
B op
C ra
D ear
D eal
F rank
J olly
O live
P r
P apa
R R
R ock
S low
T illy
W ant
a is
a ct
b i
b ro
b age
c used
d river
i bby
y l
Ġt uck
Ġt ies
Ġa is
Ġw ig
Ġto ad
Ġf u
Ġf aded
ĠT oy
ĠT ato
it er
Ġd izz
Ġp uff
ay a
Ġm itt
er k
er ing
er ious
om p
Ġn ur
Ġn ast
ar ty
on se
on na
Ġg onna
at ty
ĠS k
ĠS atur
an wh
end ing
ir ls
Ġpl ug
Ġbe ast
On ly
Ġr otten
ex i
Ġhis sing
Ġst un
Ġst all
Ġst ings
Ġst acked
nt il
st alk
ĠL uc
ĠL auren
ĠB ad
ĠB ucky
ĠM ic
Ġsh all
Ġbo l
Ġbo ards
Ġne ct
Ġwh ales
ĠA nt
ĠA rm
Ġre app
Ġre wards
Ġse als
ic ip
Ġro ds
Ġare n
um s
Ġsad der
Ġcl ue
hing s
Ġme mb
ong r
ss y
Ġthought s
ret ty
Ġbl ocked
us hing
ap ers
ap aya
Ġint rig
urp le
ant ha
ĠE ddie
Ġrun ner
Ġtow ard
ĠC ross
ĠC ici
Ġcle ared
Ġta pped
Ġsn orted
Ġdan gers
Ġbu bb
Ġbu dge
Ġgl itt
Ġmagic ian
ĠK elly
ĠP l
Ġbra ver
Ġca fe
Ġbrave st
ĠR oy
ĠR alph
Ġwr iter
Ġflo ats
ac ing
Ġcut ter
Ġcon cer
ĠG iant
Ġown ers
Ġbel oved
Ġrace s
Ġgrass y
Ġfarm ers
bo at
Ġant icip
ĠO ld
ĠO uch
In stead
Ġthrough out
Ġpen s
Ġpen nies
Ġbit s
Ġset s
oun ced
Ġcre ations
Ġpol itely
Ġvisit s
Ġvisit or
Ġbat hed
Ġstreet s
Be hind
oph ia
ĠN avy
ĠN umber
Ġdrive way
Ġact s
ĠSp inny
Ġpour s
Ġpan icked
Ġstir s
Ġreturn ing
ĠSt an
Ġclass mates
Ġpay s
Ġgen ie
ina ld
Ġbean stalk
Ġpresent ed
Ġcop s
gu ess
How ever
ĠU ntil
ĠSh ampoo
Ġgar bage
keep ers
Ġfisher men
Ġham m
Ġprep aring
Ġscrew driver
Ġmay or
Al bert
ĠJo an
Ġvest s
Ġobser ving
year s
ĠY og
Ġvehic les
Ġdelay ed
Ġaw are
ĠFl ap
ĠFl appy
Qu ick
Not hing
ĠUn i
Ġdemand ing
Ġallow ing
Ġdifference s
ĠLe opard
Bird y
Ġflap s
Ġsimp ly
Ġtwink le
Ġsprink led
ud rey
Ġresp onse
Ġseagull s
Ġhesit ant
