{"<|endoftext|>":0,"<|pad|>":1,"!":2,"\"":3,"#":4,"$":5,"%":6,"&":7,"'":8,"(":9,")":10,"*":11,"+":12,",":13,"-":14,".":15,"/":16,"0":17,"1":18,"2":19,"3":20,"4":21,"5":22,"6":23,"7":24,"8":25,"9":26,":":27,";":28,"<":29,"=":30,">":31,"?":32,"@":33,"A":34,"B":35,"C":36,"D":37,"E":38,"F":39,"G":40,"H":41,"I":42,"J":43,"K":44,"L":45,"M":46,"N":47,"O":48,"P":49,"Q":50,"R":51,"S":52,"T":53,"U":54,"V":55,"W":56,"X":57,"Y":58,"Z":59,"[":60,"\\":61,"]":62,"^":63,"_":64,"`":65,"a":66,"b":67,"c":68,"d":69,"e":70,"f":71,"g":72,"h":73,"i":74,"j":75,"k":76,"l":77,"m":78,"n":79,"o":80,"p":81,"q":82,"r":83,"s":84,"t":85,"u":86,"v":87,"w":88,"x":89,"y":90,"z":91,"{":92,"|":93,"}":94,"~":95,"¡":96,"¢":97,"£":98,"¤":99,"¥":100,"¦":101,"§":102,"¨":103,"©":104,"ª":105,"«":106,"¬":107,"®":108,"¯":109,"°":110,"±":111,"²":112,"³":113,"´":114,"µ":115,"¶":116,"·":117,"¸":118,"¹":119,"º":120,"»":121,"¼":122,"½":123,"¾":124,"¿":125,"À":126,"Á":127,"Â":128,"Ã":129,"Ä":130,"Å":131,"Æ":132,"Ç":133,"È":134,"É":135,"Ê":136,"Ë":137,"Ì":138,"Í":139,"Î":140,"Ï":141,"Ð":142,"Ñ":143,"Ò":144,"Ó":145,"Ô":146,"Õ":147,"Ö":148,"×":149,"Ø":150,"Ù":151,"Ú":152,"Û":153,"Ü":154,"Ý":155,"Þ":156,"ß":157,"à":158,"á":159,"â":160,"ã":161,"ä":162,"å":163,"æ":164,"ç":165,"è":166,"é":167,"ê":168,"ë":169,"ì":170,"í":171,"î":172,"ï":173,"ð":174,"ñ":175,"ò":176,"ó":177,"ô":178,"õ":179,"ö":180,"÷":181,"ø":182,"ù":183,"ú":184,"û":185,"ü":186,"ý":187,"þ":188,"ÿ":189,"Ā":190,"ā":191,"Ă":192,"ă":193,"Ą":194,"ą":195,"Ć":196,"ć":197,"Ĉ":198,"ĉ":199,"Ċ":200,"ċ":201,"Č":202,"č":203,"Ď":204,"ď":205,"Đ":206,"đ":207,"Ē":208,"ē":209,"Ĕ":210,"ĕ":211,"Ė":212,"ė":213,"Ę":214,"ę":215,"Ě":216,"ě":217,"Ĝ":218,"ĝ":219,"Ğ":220,"ğ":221,"Ġ":222,"ġ":223,"Ģ":224,"ģ":225,"Ĥ":226,"ĥ":227,"Ħ":228,"ħ":229,"Ĩ":230,"ĩ":231,"Ī":232,"ī":233,"Ĭ":234,"ĭ":235,"Į":236,"į":237,"İ":238,"ı":239,"Ĳ":240,"ĳ":241,"Ĵ":242,"ĵ":243,"Ķ":244,"ķ":245,"ĸ":246,"Ĺ":247,"ĺ":248,"Ļ":249,"ļ":250,"Ľ":251,"ľ":252,"Ŀ":253,"ŀ":254,"Ł":255,"ł":256,"Ń":257,"Ġt":258,"he":259,"Ġa":260,"Ġs":261,"Ġw":262,"nd":263,"Ġthe":264,"ed":265,"Ġb":266,"Ġto":267,"Ġand":268,"Ġh":269,"Ġf":270,"ĠT":271,"in":272,"Ġwa":273,"re":274,"it":275,"ou":276,"Ġl":277,"Ġd":278,"Ġc":279,"Ġp":280,"ay":281,"Ġm":282,"er":283,"Ġwas":284,"ĠThe":285,"om":286,"Ġhe":287,"is":288,"Ġn":289,"im":290,"ar":291,"on":292,"Ġsa":293,"ll":294,"id":295,"Ġha":296,"Ġg":297,"at":298,"ĠS":299,"ing":300,"ot":301,"en":302,"an":303,"le":304,"or":305,"end":306,"ir":307,"of":308,"am":309,"et":310,"ĠH":311,"Ġit":312,"Ġth":313,"ig":314,"ĠThey":315,"Ġpl":316,"Ġin":317,"il":318,"ĠHe":319,"Ġ\"":320,"ow":321,"ver":322,"ri":323,"Ġu":324,"ut":325,"Ġplay":326,"ith":327,"Ġsaid":328,"Ġbe":329,"Ġday":330,"Ġwith":331,"pp":332,"On":333,"Ġy":334,"ked":335,"oo":336,"Ġr":337,"Ġher":338,"ex":339,"ce":340,"ld":341,"Ġhis":342,"ĠTim":343,"ĠI":344,"ĠShe":345,"Ġst":346,"ke":347,"Ġbig":348,"nt":349,"ck":350,"very":351,"Ġyou":352,"st":353,"ve":354,"un":355,"Ġhapp":356,"Ġon":357,"all":358,"riend":359,"Ġfriend":360,"ext":361,"Ġthey":362,"oft":363,"ĠL":364,"ily":365,"Ġwe":366,"Ġhad":367,"Ġup":368,"Ġli":369,"Ġnot":370,"her":371,"Ġwant":372,"itt":373,"Ġof":374,"<|":375,"|>":376,"endoft":377,"endoftext":378,"ad":379,"Ġdo":380,"ĠB":381,"Ġe":382,"se":383,"Ġhappy":384,"ent":385,"Ġvery":386,"ĠM":387,"es":388,"Ġsaw":389,"One":390,"Ġthat":391,"ould":392,"'s":393,"Ġfor":394,"ittle":395,"Ġmom":396,"Ġlittle":397,"Ġsh":398,"Ġshe":399,"ime":400,"ch":401,"Ġnam":402,"Ġtime":403,"Ġk":404,"Ġso":405,"ound":406,".\"":407,"Ġthere":408,"Ġnamed":409,"Ġbo":410,"Ġsm":411,"Ġwere":412,"Ġwanted":413,"ĠLily":414,"Ġne":415,"Ġfriends":416,"out":417,"ird":418,"Ġbut":419,"ved":420,"ht":421,"!\"":422,"The":423,"ĠTom":424,"Ġbird":425,"el":426,"ake":427,"Ġan":428,"al":429,"Ġtoo":430,"ome":431,"Ġwent":432,"Ġwh":433,"ide":434,"Once":435,"Ġall":436,"ĠIt":437,"Ġhel":438,"ug":439,"ue":440,"Ġhelp":441,"Ġis":442,"Ġloo":443,"ĠA":444,"Ġupon":445,"Ġlo":446,"ter":447,"ry":448,"Ġtoy":449,"ore":450,"Ġfun":451,"ind":452,"get":453,"ill":454,"ame":455,"Ġas":456,"Ġj":457,"ra":458,"Ġat":459,"gether":460,"Ġo":461,"Ġcat":462,"Ġdid":463,"Ġre":464,"ur":465,"Ġtogether":466,"ack":467,"Ġse":468,"ly":469,"Ġtre":470,"ood":471,"Ġdog":472,"ic":473,"Ġcould":474,"ted":475,"Ġcan":476,"Ġball":477,"ard":478,"Ġgir":479,"Ġtheir":480,"ark":481,"Ġgirl":482,"Ġplayed":483,"ec":484,"my":485,"Ġhim":486,"Ġro":487,"Ġgo":488,"way":489,"?\"":490,"hed":491,"ain":492,"Ġkn":493,"Ġle":494,"Ġout":495,"hen":496,"Ġare":497,"Ġfr":498,"um":499,"'t":500,"Ġthem":501,"Ġboy":502,"Ġsad":503,"ul":504,"ax":505,"Ġtree":506,"other":507,"oug":508,"Ġman":509,"Ġloved":510,"Ġhave":511,"Ġcl":512,"Ġfound":513,"Ġlooked":514,"Ġsp":515,"ĠSue":516,"Ġstar":517,"Ġsc":518,"one":519,"Ġback":520,"own":521,"hing":522,"are":523,"ĠMax":524,"Ġlike":525,"Ġbec":526,"side":527,"ful":528,"Ġme":529,"op":530,"ong":531,"Ġpark":532,"Ġwould":533,"ight":534,"Ġliked":535,"round":536,"ĠOne":537,"elt":538,"Ġfa":539,"Ġcar":540,"Ġmake":541,"ell":542,"ĠBut":543,"Ġfelt":544,"Ġla":545,"ĠW":546,"Ġasked":547,"ĠSam":548,"You":549,"ared":550,"omet":551,"ice":552,"Ġcame":553,"Ġnew":554,"Ġstarted":555,"ag":556,"Ġsee":557,"Ġno":558,"ought":559,"ouse":560,"ĠBen":561,"Ġal":562,"iled":563,"Ġag":564,"Ġother":565,"Ġgood":566,"pot":567,"ĠĊ":568,"Ġsomet":569,"Ġsmall":570,"Ġbr":571,"ob":572,"ss":573,"Ġsmiled":574,"ade":575,"ried":576,"ings":577,"Ġsay":578,"Ġfind":579,"Ġwor":580,"Ġaway":581,"Ġfrom":582,"Ġthought":583,"Ġmade":584,"ĠSpot":585,"Ġwhat":586,"Ġex":587,"Ġhome":588,"Ġplaying":589,"ened":590,"Ġsomething":591,"ty":592,"Ġput":593,"Ġevery":594,"Ġwal":595,"Ġco":596,"ach":597,"Ġmu":598,"ia":599,"uc":600,"ook":601,"ie":602,"ny":603,"ĠF":604,"Ġagain":605,"Ġran":606,"Ġdown":607,"ile":608,"dd":609,"arn":610,"Ġtoys":611,"ave":612,"Ġpr":613,"king":614,"Ġscared":615,"Ġsome":616,"Ġtook":617,"Ġlaug":618,"ĠJ":619,"Ġhouse":620,"Ġfl":621,"if":622,"ab":623,"Ġaround":624,"Ġbox":625,"Ġsw":626,"ure":627,"ick":628,"Ġlearn":629,"ep":630,"ret":631,"ish":632,"oud":633,"uck":634,"Ġyour":635,"Ġlived":636,"ĠYou":637,"Ġthings":638,"Ġsun":639,"Ġthen":640,"Ġwill":641,"ew":642,"Ġbl":643,"Ġmy":644,"as":645,"Ġwhen":646,"Ġab":647,"pped":648,",\"":649,"us":650,"Ġget":651,"ank":652,"Tim":653,"Th":654,"Ġch":655,"Ġlot":656,"ucy":657,"oth":658,"ap":659,"ump":660,"ĠMia":661,"Ġwho":662,"Ġtried":663,"ist":664,"Ġfe":665,"Ġknow":666,"Ġgot":667,"ited":668,"ust":669,"Ġmany":670,"Ġabout":671,"Ġsays":672,"Ġint":673,"ally":674,"nder":675,"Ġred":676,"Ġknew":677,"Ġpret":678,"ive":679,"Ġdec":680,"Lily":681,"ise":682,"ous":683,"Ġany":684,"au":685,"ĠD":686,"ace":687,"Ġcare":688,"Ġmore":689,"Ġpic":690,"qu":691,"Ġbest":692,"ause":693,"Ġop":694,"fter":695,"Ġbecame":696,"ĠLucy":697,"Ġpo":698,"Ġwater":699,"ways":700,"âĢ":701,"fe":702,"Ġhug":703,"Ġlearned":704,"ĠBob":705,"Ġexc":706,"Ġbecause":707,"ite":708,"Ġalways":709,"Ġlook":710,"Ġv":711,"Ġoutside":712,"Ġinto":713,"Ġroom":714,"Ġboth":715,"Ġun":716,"ided":717,"Ġshow":718,"Ġlaughed":719,"ĠSo":720,"Ġeat":721,"Ġdecided":722,"ĠAnd":723,"Ġho":724,"Ġgre":725,"urp":726,"udd":727,"ant":728,"Ġpe":729,"ers":730,"ĠE":731,"ĠMom":732,"Ġjump":733,"nn":734,"Ġlong":735,"Ġone":736,"Ġke":737,"Ġthis":738,"Ġnice":739,"Ġrun":740,"Yes":741,"Ġexcited":742,"Ġfast":743,"They":744,"Tom":745,"Ġfeel":746,"Ġdad":747,"Ġtold":748,"Ġmo":749,"Ġsk":750,"Ġinside":751,"our":752,"Ġam":753,"Ġtr":754,"Ġsl":755,"ull":756,"lew":757,"Ġsor":758,"Ġtake":759,"urpr":760,"Ġrock":761,"iny":762,"Ġpretty":763,"nna":764,"Ġsurpr":765,"Ġgave":766,"Ġeach":767,"Ġgra":768,"imal":769,"ink":770,"Ġanimal":771,"Ġmuch":772,"Ġhow":773,"Wh":774,"Ġstr":775,"Ġold":776,"Ġneed":777,"But":778,"Ġthan":779,"Ġlet":780,"ven":781,"ara":782,"ro":783,"ged":784,"Ġtow":785,"ess":786,"Ġunder":787,"ĠC":788,"Ġsorry":789,"Ġor":790,"Ġwalked":791,"Ġcle":792,"and":793,"Ġta":794,"Ġhand":795,"ge":796,"ised":797,"og":798,"Ġfish":799,"urn":800,"Ġte":801,"urt":802,"Ġkind":803,"ff":804,"Ġclo":805,"ĠHis":806,"Ġwat":807,"ving":808,"Ġhig":809,"Ġanimals":810,"ase":811,"ĠAmy":812,"Ġjust":813,"Ġus":814,"Ġhappened":815,"ched":816,"Ġfood":817,"pl":818,"Ġflow":819,"Ġsky":820,"here":821,"Ġsn":822,"rom":823,"Ġide":824,"Ġtry":825,"Ġlist":826,"ĠWe":827,"Ġnear":828,"gry":829,"Ġdidn":830,"Ġidea":831,"Ġbet":832,"Ġen":833,"able":834,"ate":835,"ine":836,"Ġfi":837,"Ġflew":838,"eci":839,"Ġits":840,"ream":841,"Thank":842,"Ġcareful":843,"Ġshare":844,"Ġcake":845,"Ġheard":846,"Ġbetter":847,"Ġtw":848,"Ġstor":849,"Ġif":850,"Ġspeci":851,"Ġspecial":852,"Ġdan":853,"pec":854,"ber":855,"ion":856,"ĠTh":857,"Ġbear":858,"Ġlots":859,"Ġwind":860,"lf":861,"more":862,"Ġanymore":863,"udden":864,"Ġclean":865,"Ġnever":866,"Ġfo":867,"Ġdon":868,"Mom":869,"Ġgr":870,"Ġbug":871,"Ġtal":872,"ople":873,"Ġcom":874,"Ġhard":875,"Ġbu":876,"Ġend":877,"ĠThen":878,"Ġby":879,"Ġfly":880,"uddenly":881,"Ġmag":882,"ort":883,"Ġturn":884,"Ġfore":885,"Ġover":886,"ĠAnna":887,"ĠEvery":888,"Ġeven":889,"rm":890,"Ġlove":891,"Ġcol":892,"Ġsafe":893,"Ġpeople":894,"Ġafter":895,"Ġbad":896,"ady":897,"Ġhigh":898,"Ġfam":899,"Ġground":900,"ak":901,"Ġdoor":902,"imb":903,"Ġcome":904,"bb":905,"Ġshiny":906,"Ġproud":907,"As":908,"Ġclimb":909,"Ġopened":910,"uff":911,"Ġhurt":912,"Ġpicked":913,"Ġblue":914,"Ġloud":915,"pected":916,"Let":917,"Ġche":918,"Ġgive":919,"Ġway":920,"Ġsurprised":921,"Ġgl":922,"'m":923,"expected":924,"Ġunexpected":925,"ild":926,"Ġthanked":927,"Ġcu":928,"Ġbook":929,"ummy":930,"ĠWhen":931,"ĠFrom":932,"Ġcall":933,"Ġcolor":934,"ĠHer":935,"Ġfar":936,"arden":937,"Ġgarden":938,"Ġever":939,"Ġmagic":940,"ĠK":941,"Ġpar":942,"ough":943,"kay":944,"Ġim":945,"Ġhugged":946,"Ġstill":947,"Ġplace":948,"No":949,"Ġunt":950,"ool":951,"ĠSara":952,"Ġoff":953,"age":954,"Ġma":955,"Ġsmile":956,"Ġwalk":957,"ĠP":958,"Ġjumped":959,"Ġfamily":960,"ĠIn":961,"Ġuntil":962,"iz":963,"unny":964,"ture":965,"hes":966,"Ġpa":967,"em":968,"Ġshould":969,"Ġqu":970,"Ġnow":971,"ip":972,"Ġkid":973,"ct":974,"Ġstick":975,"itty":976,"Ġstay":977,"Ġstrong":978,"Ġforest":979,"Ġsto":980,"ane":981,"Ġdra":982,"aut":983,"Ġapp":984,"uffy":985,"dy":986,"Ġbro":987,"Ġboat":988,"Ġgreat":989,"Ġsqu":990,"Ġbra":991,"Ġbeaut":992,"Ġtra":993,"Ġnext":994,"Ġhelped":995,"Ġjo":996,"ĠSally":997,"lease":998,"Ġhat":999,"les":1000,"Ġhappily":1001,"Ġpicture":1002,"Ġstory":1003,"iful":1004,"ies":1005,"Ġbeautiful":1006,"Ġlisten":1007,"ning":1008,"th":1009,"Ġshowed":1010,"Ġwhile":1011,"Ġcalled":1012,"oon":1013,"Ġmet":1014,"Ġclos":1015,"Now":1016,"Ġkids":1017,"pt":1018,"Ġopen":1019,"Ġfrog":1020,"Ġsoft":1021,"Ġmor":1022,"Ġrem":1023,"luffy":1024,"Ġtown":1025,"Ġeveryone":1026,"Can":1027,"It":1028,"ger":1029,"Ġimp":1030,"Ġbeing":1031,"He":1032,"When":1033,"Ġad":1034,"Ġstopped":1035,"rel":1036,"Ġrain":1037,"Ġangry":1038,"by":1039,"Ġyummy":1040,"Ġwatch":1041,"bit":1042,"Ġdoll":1043,"Ġca":1044,"Ġcouldn":1045,"abbit":1046,"vent":1047,"ary":1048,"ĠLet":1049,"ree":1050,"Ġtruck":1051,"Ġde":1052,"Ġwo":1053,"ished":1054,"ĠKitty":1055,"Ġmouse":1056,"Ġrabbit":1057,"be":1058,"dded":1059,"Ġate":1060,"ress":1061,"iss":1062,"ĠFluffy":1063,"Ġlost":1064,"Ġwarm":1065,"Ġslide":1066,"Ġface":1067,"Ġbrave":1068,"Ġgame":1069,"ĠWh":1070,"Ġkeep":1071,"Ġfell":1072,"fore":1073,"Ġleave":1074,"Ġflowers":1075,"Ġtwo":1076,"Ġcook":1077,"owl":1078,"Ġbed":1079,"Ġcry":1080,"Ġpus":1081,"illy":1082,"so":1083,"ock":1084,"Ġsoon":1085,"Ġnoise":1086,"Ġgreen":1087,"Ġalso":1088,"ĠR":1089,"That":1090,"Ġbunny":1091,"ear":1092,"Ġnodded":1093,"Ġwhere":1094,"gan":1095,"self":1096,"Ġfix":1097,"Ġsat":1098,"Ġhaving":1099,"ired":1100,"Hi":1101,"Ġbefore":1102,"Ġyell":1103,"âĢĿ":1104,"Ġkept":1105,"Ġhole":1106,"Ġpain":1107,"Ġhear":1108,"âĢľ":1109,"ble":1110,"day":1111,"Ġstore":1112,"What":1113,"Ġhands":1114,"Ġcatch":1115,"Look":1116,"Ġuse":1117,"irrel":1118,"Then":1119,"Ġsing":1120,"Ġfin":1121,"az":1122,"irst":1123,"Ġused":1124,"Ġmommy":1125,"Ġthr":1126,"Ġexpl":1127,"Ġfunny":1128,"Ġbirds":1129,"Ġsquirrel":1130,"Ben":1131,"ĠNow":1132,"Ġcra":1133,"Ġlooking":1134,"uch":1135,"Ġtired":1136,"Ġey":1137,"Ġgoing":1138,"Ġwait":1139,"Ġbre":1140,"Ġkit":1141,"oy":1142,"eet":1143,"aybe":1144,"leep":1145,"Ġmean":1146,"ange":1147,"thing":1148,"ught":1149,"Ġour":1150,"led":1151,"Ġpull":1152,"air":1153,"Ġdif":1154,"Ġfav":1155,"Ġsunny":1156,"Ġtri":1157,"Ġpond":1158,"ember":1159,"ĠCan":1160,"Ġhas":1161,"chen":1162,"Ġkitchen":1163,"Ġwr":1164,"Ġparty":1165,"ting":1166,"Ġice":1167,"Ġthink":1168,"Ġflo":1169,"oh":1170,"orn":1171,"Ġwork":1172,"We":1173,"ac":1174,"Ġhead":1175,"uit":1176,"Ġbus":1177,"Ġmess":1178,"Ġworked":1179,"Ġdr":1180,"ng":1181,"Ġreal":1182,"ĠDo":1183,"zy":1184,"ious":1185,"Ġokay":1186,"ohn":1187,"Ġothers":1188,"Ġsound":1189,"ft":1190,"llow":1191,"Ġbeh":1192,"Ġmoral":1193,"Ġeyes":1194,"ath":1195,"Ġsand":1196,"Ġz":1197,"rew":1198,"Ġshared":1199,"Ġtalk":1200,"Ġadvent":1201,"Ġremember":1202,"ĠâĢľ":1203,"Ġfavor":1204,"joy":1205,"ma":1206,"Ġfavorite":1207,"Hell":1208,"Ġright":1209,"Ġask":1210,"Hello":1211,"Ġcut":1212,"Ġcuri":1213,"Ġcold":1214,"Ġri":1215,"Ġhop":1216,"Ġcon":1217,"Ġimport":1218,"Ġhill":1219,"Ġmon":1220,"lly":1221,"Ġdir":1222,"imes":1223,"Ġenjoy":1224,"Ġmaking":1225,"Ġfollow":1226,"Ġcurious":1227,"Ġvo":1228,"Ġpie":1229,"Ġbright":1230,"Ġyard":1231,"ĠG":1232,"At":1233,"Ġflower":1234,"ken":1235,"Don":1236,"Ġsweet":1237,"reed":1238,"Ġmove":1239,"Ġduck":1240,"Ġdis":1241,"Ġown":1242,"Ġrest":1243,"Ġdraw":1244,"Ġfirst":1245,"Ġimportant":1246,"Ġtop":1247,"ĠJack":1248,"Ġsho":1249,"Ġcla":1250,"Ġbegan":1251,"Ġtall":1252,"Ġpick":1253,"Ġblock":1254,"Ġwatched":1255,"ount":1256,"Ġsleep":1257,"Ġbel":1258,"Ġlady":1259,"After":1260,"Ġnight":1261,"Ġthing":1262,"Wow":1263,"ied":1264,"Ġrace":1265,"ster":1266,"Ġtail":1267,"Ġhot":1268,"fere":1269,"Ġhid":1270,"Ġhun":1271,"Ġdiffere":1272,"Ġagreed":1273,"Ġfloor":1274,"Ġhere":1275,"Ġshout":1276,"Ġstop":1277,"ect":1278,"Ġforg":1279,"Ġdark":1280,"ĠThis":1281,"Ġbag":1282,"Ġgrass":1283,"ign":1284,"Ġworry":1285,"Ġsong":1286,"Ġtable":1287,"Ġtast":1288,"Ġtell":1289,"que":1290,"Ġprin":1291,"Ġneeded":1292,"Ġleaves":1293,"aring":1294,"Ġvoice":1295,"Ġread":1296,"Ġyellow":1297,"aper":1298,"Ġfarm":1299,"ĠFin":1300,"Ġru":1301,"Ġdress":1302,"Ġtrees":1303,"Ġhair":1304,"Ġswing":1305,"Why":1306,"Ġdifferent":1307,"Ġdel":1308,"Ġadventure":1309,"Ġwalking":1310,"Ġsurprise":1311,"Ġturned":1312,"Ġplease":1313,"âĢĻ":1314,"ĠMr":1315,"Ġhungry":1316,"Max":1317,"ĠSuddenly":1318,"Ġdoes":1319,"Ġcars":1320,"ĠDad":1321,"Ġcolors":1322,"oom":1323,"Suddenly":1324,"Ġlaugh":1325,"bo":1326,"Sue":1327,"Ġcloser":1328,"ached":1329,"Sam":1330,"Ġpretend":1331,"co":1332,"Ġlion":1333,"ient":1334,"ered":1335,"ila":1336,"Ġbroken":1337,"Ġwood":1338,"Ġcried":1339,"Ġprom":1340,"Ġwet":1341,"bye":1342,"Ġpiece":1343,"ĠTimmy":1344,"Ġfriendly":1345,"Ġfull":1346,"Ġbehind":1347,"Ġtrain":1348,"isy":1349,"Ġdance":1350,"Anna":1351,"ppy":1352,"Ġtouch":1353,"Ġclimbed":1354,"Ġanother":1355,"Ġdanc":1356,"af":1357,"Ġgone":1358,"where":1359,"Ġapple":1360,"Ġsmell":1361,"bbed":1362,"Ġste":1363,"Ġswim":1364,"So":1365,"cked":1366,"Ġblocks":1367,"ater":1368,"Ġfeeling":1369,"sh":1370,"Ġpaper":1371,"ĠThat":1372,"She":1373,"Ġamaz":1374,"ĠAs":1375,"Ġant":1376,"Ġper":1377,"Ġbutter":1378,"Ġrunning":1379,"ĠJane":1380,"Ġreached":1381,"Ġhelping":1382,"Ġfair":1383,"Ġlistened":1384,"iced":1385,"Ġgoodbye":1386,"Ġready":1387,"av":1388,"Ġonly":1389,"Ġhold":1390,"Ġlight":1391,"Ġac":1392,"ray":1393,"aby":1394,"ike":1395,"ĠO":1396,"Ġroll":1397,"Sara":1398,"Ġcream":1399,"ĠBobo":1400,"Ġdri":1401,"Ġrepl":1402,"Ġsit":1403,"key":1404,"Ġpushed":1405,"Ġfight":1406,"Ġslow":1407,"Ġplan":1408,"Ġclose":1409,"red":1410,"ĠAll":1411,"Ġless":1412,"Ġdone":1413,"pe":1414,"Ġwag":1415,"Ġowl":1416,"Ġwall":1417,"Ġcool":1418,"Ġsees":1419,"Ġmust":1420,"Ġglad":1421,"Ġfruit":1422,"Ġwise":1423,"Ġtiny":1424,"ield":1425,"Ġmoment":1426,"Ġwonder":1427,"Ġtrying":1428,"Ġstuck":1429,"ather":1430,"Ġdream":1431,"In":1432,"Ġdin":1433,"Ġthrough":1434,"ash":1435,"Ġwished":1436,"Ġpen":1437,"Ġfire":1438,"ames":1439,"Ġreach":1440,"Ġbar":1441,"Ġthank":1442,"Ġbaby":1443,"Ġbeen":1444,"Ġwindow":1445,"Ġjoin":1446,"Ġexplore":1447,"ott":1448,"Ġlooks":1449,"Ġdoing":1450,"ĠEveryone":1451,"Ġar":1452,"Ġbit":1453,"Ġbuy":1454,"Ġshouted":1455,"Ġair":1456,"Mia":1457,"Ġhide":1458,"Ġbuild":1459,"ĠMommy":1460,"Ġnest":1461,"Ġswam":1462,"Ġscary":1463,"Ġfall":1464,"Ġcoming":1465,"Ġcloud":1466,"Ġland":1467,"Ġbran":1468,"Ġwin":1469,"Ġblew":1470,"oney":1471,"Ġseen":1472,"andy":1473,"Ġperf":1474,"ask":1475,"Ġchild":1476,"Ġdirty":1477,"Ġheld":1478,"Ġbooks":1479,"avy":1480,"ph":1481,"Ġbigger":1482,"Ġleft":1483,"Ġquick":1484,"Ġreplied":1485,"Ġmat":1486,"ely":1487,"Ġunderst":1488,"Ġmight":1489,"Ġtreat":1490,"ndma":1491,"Ġcolorful":1492,"Ġgrabbed":1493,"Ġpulled":1494,"Ġwhy":1495,"Ġturns":1496,"Okay":1497,"Ġdro":1498,"Ġbutterf":1499,"ized":1500,"Ġremembered":1501,"Ġfill":1502,"icy":1503,"Ġname":1504,"ucky":1505,"Ġchair":1506,"Ġcup":1507,"Ġbroke":1508,"Ġcast":1509,"orm":1510,"Ġcount":1511,"Ġsometimes":1512,"aisy":1513,"Ġsure":1514,"Ġthree":1515,"oup":1516,"ation":1517,"Ġspl":1518,"Ġhopped":1519,"Ġpink":1520,"ton":1521,"Ġstayed":1522,"Ġsnow":1523,"Ġjob":1524,"Ġclapped":1525,"Oh":1526,"up":1527,"Ġgames":1528,"der":1529,"Ġbott":1530,"Ġgif":1531,"ee":1532,"Ġwaited":1533,"'re":1534,"ĠThere":1535,"Ġplant":1536,"Ġnoticed":1537,"Ġgrow":1538,"Ġballoon":1539,"Ġlesson":1540,"ix":1541,"Ġanything":1542,"Ġpictures":1543,"Ġwoods":1544,"Ġmout":1545,"Ġmouth":1546,"ĠAfter":1547,"Ġpaint":1548,"Ġset":1549,"Ġwaved":1550,"uddy":1551,"ower":1552,"Ġenjoyed":1553,"room":1554,"Ġspot":1555,"Ġalone":1556,"Ġpot":1557,"Ġcont":1558,"This":1559,"Ġsea":1560,"Ġbrother":1561,"ds":1562,"Ġlikes":1563,"art":1564,"oun":1565,"Her":1566,"amp":1567,"Ġtight":1568,"\".":1569,"Ġthrew":1570,"Ġyear":1571,"Ġheavy":1572,"Ġwhite":1573,"Ġfollowed":1574,"Ġgent":1575,"Ġquickly":1576,"Ġbutterfly":1577,"ins":1578,"Spot":1579,"Ġmiss":1580,"Ġcookies":1581,"Ġju":1582,"ape":1583,"Ġdeep":1584,"asure":1585,"olly":1586,"Ġeverywhere":1587,"de":1588,"Lucy":1589,"ze":1590,"Ġbee":1591,"Ġpat":1592,"oe":1593,"ĠJohn":1594,"aught":1595,"ries":1596,"Ġmar":1597,"Bob":1598,"Ġworld":1599,"cle":1600,"ister":1601,"Ġclot":1602,"Ġwrong":1603,"Ġclothes":1604,"Ġcastle":1605,"Ġcre":1606,"Ġwear":1607,"less":1608,"lc":1609,"Ġpu":1610,"ross":1611,"Ġmum":1612,"Ġbutton":1613,"Ġleaf":1614,"iet":1615,"Ġnap":1616,"ĠBuddy":1617,"ner":1618,"Ġmix":1619,"Ġkey":1620,"Ġquiet":1621,"arent":1622,"Ġmakes":1623,"ang":1624,"Ġbrought":1625,"Ġround":1626,"row":1627,"Ġparent":1628,"rot":1629,"ued":1630,"Ġwants":1631,"ully":1632,"Ġwell":1633,"Ġhimself":1634,"ĠDaisy":1635,"os":1636,"Ġwon":1637,"Ġride":1638,"Ġdelic":1639,"Ġfield":1640,"man":1641,"Ġdanced":1642,"Ġarm":1643,"Ġbreak":1644,"ĠLila":1645,"Ġtower":1646,"Do":1647,"Ġsign":1648,"ĠWhat":1649,"fully":1650,"Ġhit":1651,"Ġsnack":1652,"Ġdrag":1653,"thy":1654,"Ġfaster":1655,"Ġking":1656,"Ġgift":1657,"Ġtalked":1658,"Ġforgot":1659,"Ġwish":1660,"Ġbeach":1661,"Ġleg":1662,"gg":1663,"Ġsister":1664,"Ġriver":1665,"Ġmus":1666,"cess":1667,"ence":1668,"Ġfinished":1669,"Ġbranch":1670,"Ġdry":1671,"Ġcomp":1672,"leph":1673,"ves":1674,"cy":1675,"itten":1676,"Ġsharing":1677,"From":1678,"Ġbike":1679,"Ġpol":1680,"ĠInside":1681,"vel":1682,"Ġdinner":1683,"Ġdragon":1684,"Ġfur":1685,"ards":1686,"Ġra":1687,"Ġdanger":1688,"Ġrel":1689,"Ġem":1690,"Ġbor":1691,"Ġreally":1692,"ipp":1693,"Ġvis":1694,"Ġunderstand":1695,"Ġshin":1696,"ĠTo":1697,"ance":1698,"Ġblack":1699,"John":1700,"ren":1701,"Ġbottle":1702,"Ġmonkey":1703,"Ġfox":1704,"His":1705,"eddy":1706,"Ġmonster":1707,"Ġpig":1708,"Ġsmart":1709,"ĠAt":1710,"Ġpoin":1711,"Ġworried":1712,"Ġrocks":1713,"Ġcontin":1714,"Amy":1715,"Ġgu":1716,"Ġcarefully":1717,"Ġbowl":1718,"Ġsomeone":1719,"imi":1720,"ctor":1721,"Ġfairy":1722,"Ġtoday":1723,"Ġatt":1724,"ast":1725,"Ġfilled":1726,"Ġside":1727,"Ġpudd":1728,"Ġeating":1729,"Ġwelc":1730,"Ġel":1731,"ush":1732,"ses":1733,"Ġboun":1734,"Ġcow":1735,"Ġgi":1736,"itting":1737,"Ġbrown":1738,"Ġsnake":1739,"ead":1740,"Ġwhe":1741,"Ġpromised":1742,"Ġfan":1743,"Ġsilly":1744,"Ġpet":1745,"Ġhappen":1746,"While":1747,"Just":1748,"Ġeverything":1749,"Ġyes":1750,"ts":1751,"Ġres":1752,"ĠMaybe":1753,"ĠSoon":1754,"Ġparents":1755,"Ġsoup":1756,"Ġmusic":1757,"Ġvisit":1758,"Ġmud":1759,"Ġletter":1760,"Ġfree":1761,"ated":1762,"Ġelse":1763,"Ġpieces":1764,"Ġroad":1765,"Ġchildren":1766,"Ġbite":1767,"stead":1768,"Ġsang":1769,"Ġshop":1770,"Ġcontinued":1771,"Fin":1772,"Ġtalking":1773,"Ġkite":1774,"Ġperfect":1775,"zz":1776,"Ġegg":1777,"Ġflying":1778,"Ġsmiles":1779,"ĠBilly":1780,"Ġthrow":1781,"Ġrealized":1782,"Ġmail":1783,"Ġear":1784,"ĠSarah":1785,"ord":1786,"Ġwords":1787,"ĠEm":1788,".âĢĿ":1789,"Ġamazing":1790,"cket":1791,"Ġjar":1792,"Ġlaughing":1793,"Ġwagged":1794,"Ġque":1795,"Ġorange":1796,"Ġsec":1797,"Ġmoved":1798,"Ġsitting":1799,"Ġenough":1800,"Ġclosed":1801,"ĠZ":1802,"Ġpass":1803,"Ġmother":1804,"Ġwithout":1805,"Ġshining":1806,"gly":1807,"Ġsmo":1808,"Ġbuck":1809,"Ġstand":1810,"Ġcrab":1811,"Ġsail":1812,"Ġrope":1813,"Ġdangerous":1814,"fort":1815,"Ġbath":1816,"Ġstrange":1817,"Ġbarked":1818,"Ġsecret":1819,"Ġstu":1820,"ĠMimi":1821,"Ġdrink":1822,"Ġtasty":1823,"Ġve":1824,"unch":1825,"Ġwelcome":1826,"fish":1827,"ella":1828,"Ġpaw":1829,"used":1830,"iver":1831,"board":1832,"Ġcrying":1833,"Ġce":1834,"Ġheal":1835,"Ġwhist":1836,"Ġpast":1837,"Ġlon":1838,"ises":1839,"Ġcandy":1840,"Ġliving":1841,"ĠJoe":1842,"Ġ-":1843,"Ġhigher":1844,"Maybe":1845,"ches":1846,"Ġlonely":1847,"Ġpre":1848,"ĠCh":1849,"Ġowner":1850,"Ġshoes":1851,"Ġbelie":1852,"Ġsack":1853,"Ġfarmer":1854,"Please":1855,"Ġmorning":1856,"Ġtom":1857,"arm":1858,"ato":1859,"chool":1860,"ĠJen":1861,"gy":1862,"Ġswings":1863,"Ġdelicious":1864,"Ġpurp":1865,"Ġschool":1866,"ract":1867,"isk":1868,"llie":1869,"Ġscream":1870,"Ġteac":1871,"ible":1872,"Ġpush":1873,"Ġfinally":1874,"!âĢĿ":1875,"Ġph":1876,"Ġstone":1877,"Ġgrandma":1878,"Ġrolled":1879,"lder":1880,"Mommy":1881,"lephant":1882,"Ġpuddle":1883,"ich":1884,"Ġstre":1885,"Ġdolls":1886,"me":1887,"ĠBl":1888,"Ġblank":1889,"Ġgetting":1890,"ire":1891,"Ġlake":1892,"ama":1893,"Ġasks":1894,"Ġpurple":1895,"lla":1896,"asket":1897,"Ġmad":1898,"Ġshell":1899,"Ġtrou":1900,"Ġyears":1901,"ased":1902,"Ġcaught":1903,"Ġblanket":1904,"Ġcorn":1905,"set":1906,"Ġtreasure":1907,"Ġwore":1908,"Ġmoney":1909,"Ġruns":1910,"ub":1911,"Ġbasket":1912,"Ġhoped":1913,"Ġpile":1914,"ons":1915,"Ġsame":1916,"iskers":1917,"eo":1918,"Ġsinging":1919,"app":1920,"Ġherself":1921,"ey":1922,"Ġwings":1923,"Ġpers":1924,"Ġapples":1925,"cks":1926,"Ġben":1927,"Ġcute":1928,"br":1929,"Ġbat":1930,"Ġmine":1931,"ĠTommy":1932,"Ġje":1933,"igh":1934,"Ġplane":1935,"Ġgentle":1936,"Ġcray":1937,"Ġcarrot":1938,"Ġelephant":1939,"Ġteacher":1940,"Ġcoat":1941,"Ġpill":1942,"Ġsear":1943,"Ġballs":1944,"Ġdropped":1945,"Ġstart":1946,"Ġfit":1947,"Ġteddy":1948,"Ġdays":1949,"Ġcour":1950,"irth":1951,"irthday":1952,"Ġdoctor":1953,"Finally":1954,"ined":1955,"Ġwar":1956,"Ġcourse":1957,"Ġforever":1958,"Ġjoy":1959,"Ġwoke":1960,"aughty":1961,"Ġnaughty":1962,"Ġhiding":1963,"Ġcard":1964,"Ġseed":1965,"Ġmin":1966,"Ġbring":1967,"Ġpromise":1968,"ilk":1969,"ĠWhiskers":1970,"Ġmost":1971,"Ġarri":1972,"Ġteach":1973,"Ġband":1974,"Ġcr":1975,"Ġspin":1976,"Ġcookie":1977,"umpy":1978,"ol":1979,"Ġfence":1980,"ator":1981,"Ġshap":1982,"Ġchee":1983,"Ġrob":1984,"Ġbush":1985,"ĠGra":1986,"ĠBlue":1987,"Ġlunch":1988,"Ġmilk":1989,"Ġshr":1990,"Ġthinks":1991,"Ġbirthday":1992,"Ġugly":1993,"Ġeas":1994,"arp":1995,"Ġnose":1996,"Ġtouc":1997,"ose":1998,"ĠThank":1999,"Ġjuice":2000,"Ġob":2001,"Ġvill":2002,"Ġbow":2003,"Ġgrew":2004,"Ġpop":2005,"Ġbelong":2006,"sw":2007,"Ġansw":2008,"Ġshapes":2009,"fused":2010,"ipped":2011,"itch":2012,"Ġsharp":2013,"ĠFred":2014,"ail":2015,"ass":2016,"Ġcreat":2017,"Ġyoung":2018,"Ġheart":2019,"sy":2020,"irt":2021,"umber":2022,"Ġbench":2023,"ier":2024,"ĠBella":2025,"Ġstreet":2026,"'ll":2027,"bow":2028,"ĠLeo":2029,"Ġseem":2030,"Jack":2031,"Ġbone":2032,"Ġwra":2033,"Ġlate":2034,"Ġmark":2035,"erry":2036,"Ġable":2037,"ale":2038,"ball":2039,"sc":2040,"eter":2041,"Ġbelieve":2042,"Ġrocket":2043,"Ġzoom":2044,"Ġbucket":2045,"Ġcoin":2046,"Ġbread":2047,"Ġpower":2048,"Ġpocket":2049,"Ġmagical":2050,"Ġdirt":2051,"Ġrobot":2052,"Ġinc":2053,"Ġshy":2054,"Ġkiss":2055,"Ġspoon":2056,"Ġtouched":2057,"Ġshook":2058,"Ġbusy":2059,"Ġslowly":2060,"Ġkitten":2061,"Ġtwins":2062,"Ġprob":2063,"Ġcheered":2064,"Ġarrived":2065,"Ġshake":2066,"Ġfeels":2067,"Ġlem":2068,"Ġcraw":2069,"Ġneck":2070,"Ġseat":2071,"Ġcarry":2072,"Ġstorm":2073,"Ġtrip":2074,"ling":2075,"Ġamazed":2076,"Ġfew":2077,"ung":2078,"Ġspo":2079,"eared":2080,"Ġvillage":2081,"OK":2082,"igg":2083,"Ġbell":2084,"idge":2085,"lem":2086,"Ġtaking":2087,"Ġcoll":2088,"Ġstories":2089,"Ġgrumpy":2090,"Ġfixed":2091,"Ġpatient":2092,"Ġnut":2093,"oose":2094,"Ġproblem":2095,"ost":2096,"urtle":2097,"Ġwheel":2098,"Good":2099,"Ġsounds":2100,"Ġdist":2101,"Ġlive":2102,"Ġgray":2103,"Ġwonderful":2104,"irp":2105,"Ġrainbow":2106,"una":2107,"Ġwave":2108,"Ġtowards":2109,"Ġsug":2110,"Ġhuge":2111,"Ġspark":2112,"Ġrude":2113,"Ġdriver":2114,"Ġhor":2115,"Ġcover":2116,"ors":2117,"Ġsongs":2118,"fortable":2119,"Ġwhistle":2120,"ĠMark":2121,"Ġcart":2122,"Ġcir":2123,"emy":2124,"Ġwide":2125,"ĠMomo":2126,"Ġsal":2127,"Lila":2128,"Ġdes":2129,"Ġrec":2130,"epend":2131,"unt":2132,"ens":2133,"Ġstring":2134,"Ġdisapp":2135,"kin":2136,"Ġsuc":2137,"elly":2138,"bble":2139,"Ġtreats":2140,"Ġpath":2141,"pping":2142,"Ġmeet":2143,"iling":2144,"Ġupset":2145,"Ġholding":2146,"Ġcheese":2147,"alm":2148,"Ġmoon":2149,"Be":2150,"Ġturtle":2151,"oph":2152,"Ġwild":2153,"Ġworm":2154,"Of":2155,"Sure":2156,"ĠN":2157,"Ġlay":2158,"Ġhugs":2159,"ourn":2160,"Ġgrab":2161,"Ġfighting":2162,"Ġdi":2163,"Ġlife":2164,"Ġgiant":2165,"Ġjourn":2166,"Ġpeace":2167,"Ġbugs":2168,"Ġpuppy":2169,"ring":2170,"Ġjew":2171,"umb":2172,"Ġsmooth":2173,"Ġban":2174,"Ġnote":2175,"adow":2176,"Ġjoke":2177,"Ġcloth":2178,"Ġnoises":2179,"ĠJust":2180,"ĠEmma":2181,"Ġjewel":2182,"Ġsour":2183,"Ġhoney":2184,"Ġmist":2185,"Ġsmelly":2186,"Ġlucky":2187,"Ġinv":2188,"ountain":2189,"Ġser":2190,"Ġcou":2191,"Ġlanded":2192,"ular":2193,"izzy":2194,"ĠOn":2195,"onest":2196,"Ġnet":2197,"pper":2198,"St":2199,"Ġcave":2200,"Ġthin":2201,"Ġrad":2202,"aur":2203,"Ġhonest":2204,"Ġbeak":2205,"ĠAnn":2206,"Ġprincess":2207,"not":2208,"Ġboss":2209,"Ġjelly":2210,"ife":2211,"Ġdrive":2212,"isa":2213,"Ġchew":2214,"Ġpart":2215,"Ġbanan":2216,"ery":2217,"Ġcannot":2218,"Ġseek":2219,"Ġact":2220,"ĠMolly":2221,"Ġmissed":2222,"Ġba":2223,"Ġmed":2224,"Ġstars":2225,"ove":2226,"Ġdogs":2227,"Ġign":2228,"Ġsick":2229,"Ġsuddenly":2230,"read":2231,"sp":2232,"Ġoven":2233,"Ġdrove":2234,"lower":2235,"Ġbri":2236,"Ġstep":2237,"Ġtea":2238,"ĠFinally":2239,"Ġsplas":2240,"Ġshelf":2241,"iger":2242,"Ġexp":2243,"Ġsnowman":2244,"Ġwasn":2245,"Ġinstead":2246,"Ġfle":2247,"ĠDog":2248,"Ġfoot":2249,"Hey":2250,"Ġtaste":2251,"Ġmaybe":2252,"Ġducks":2253,"Later":2254,"Ġsel":2255,"ert":2256,"ope":2257,"Ġacross":2258,"Ġhelpful":2259,"ateful":2260,"Ġsandw":2261,"Ġfancy":2262,"Ġadventures":2263,"est":2264,"Ġbought":2265,"Ġwash":2266,"Ġorgan":2267,"ere":2268,"ian":2269,"Ġcross":2270,"To":2271,"Ġline":2272,"Ġglow":2273,"ĠRemy":2274,"Ġgrateful":2275,"Ġcomes":2276,"Ġforget":2277,"Ġslid":2278,"Ġash":2279,"Ġconfused":2280,"idy":2281,"let":2282,"Ġspe":2283,"Ġchange":2284,"Ġpuzz":2285,"Ġhealthy":2286,"Ġpillow":2287,"Ġdish":2288,"Ġpract":2289,"Ġzoo":2290,"ĠOllie":2291,"oppy":2292,"Ġval":2293,"oomy":2294,"Ġstepped":2295,"Ġlast":2296,"erest":2297,"Ġlad":2298,"Ġcap":2299,"Ġinterest":2300,"Ġelder":2301,"Ġcho":2302,"Ġselfish":2303,"ity":2304,"Ġworking":2305,"Ġwhole":2306,"Ġeasy":2307,"Ġelderly":2308,"ward":2309,"Ġanyone":2310,"Ġsticks":2311,"Ġwatching":2312,"Ġhope":2313,"Ġcalm":2314,"Ġmessy":2315,"col":2316,"Ġpri":2317,"Ġsave":2318,"amed":2319,"Ġchased":2320,"Ġdaddy":2321,"Ġtakes":2322,"Ġforgive":2323,"Ġav":2324,"Ġweak":2325,"Ġmyster":2326,"Ġteam":2327,"ize":2328,"irpy":2329,"Ġwrite":2330,"Ġshirt":2331,"Ġladder":2332,"oc":2333,"Ġtape":2334,"Ġwolf":2335,"to":2336,"ĠSp":2337,"Ġclever":2338,"pect":2339,"Ġsplash":2340,"Ġlegs":2341,"Ġlemon":2342,"Ġmind":2343,"Ġfeather":2344,"Ġphone":2345,"Ġhorse":2346,"Ġlonger":2347,"Ġplants":2348,"Ġperson":2349,"Ġtidy":2350,"Ġpour":2351,"ider":2352,"Ġstret":2353,"Ġjog":2354,"Ġprot":2355,"ever":2356,"ork":2357,"Ġemp":2358,"Soon":2359,"Ġbark":2360,"Ġlater":2361,"Ġpan":2362,"Ġalong":2363,"ĠCat":2364,"izz":2365,"Ġempty":2366,"Sally":2367,"ĠBu":2368,"Ġboot":2369,"Ġfaces":2370,"Ġseemed":2371,"Ġlock":2372,"Ġcozy":2373,"Ġpretended":2374,"bbles":2375,"Ġsleepy":2376,"Ġhum":2377,"ions":2378,"Ġsu":2379,"iting":2380,"Ġsaved":2381,"Ġstir":2382,"Ġfinish":2383,"Ġwaiting":2384,"Ġmach":2385,"llo":2386,"Ġswimm":2387,"Come":2388,"pill":2389,"Ġret":2390,"pillar":2391,"?âĢĿ":2392,"ually":2393,"ained":2394,"Ġspicy":2395,"Ġchick":2396,"ĠCome":2397,"Ġcheer":2398,"Ġbounce":2399,"Ġent":2400,"Ġring":2401,"ĠLisa":2402,"Ġgoat":2403,"Ġscreamed":2404,"Ġreturn":2405,"Ġfake":2406,"Ġpool":2407,"ult":2408,"ĠChirpy":2409,"den":2410,"Ġjumping":2411,"ĠDaddy":2412,"Ġsuch":2413,"Ġinteresting":2414,"Ġsupp":2415,"Ġtie":2416,"Ġwondered":2417,"Ġclouds":2418,"Ġprint":2419,"ek":2420,"Ġpin":2421,"ĠDucky":2422,"Ġfruits":2423,"Ġmistake":2424,"unk":2425,"Ġdrank":2426,"ocked":2427,"Ġlift":2428,"Ġspray":2429,"erpillar":2430,"Ġthough":2431,"Ġplate":2432,"Ġeag":2433,"Ġcaterpillar":2434,"Ġstra":2435,"ĠTogether":2436,"Ġbossy":2437,"dge":2438,"issors":2439,"box":2440,"Ġonto":2441,"Ġgather":2442,"Ġdrew":2443,"eth":2444,"Ġkick":2445,"ĠBenny":2446,"Ġbuilding":2447,"Ġscissors":2448,"Ġmachine":2449,"Ġswimming":2450,"ĠTV":2451,"lebr":2452,"ĠWith":2453,"Ġrich":2454,"Ġnorm":2455,"Ġnumber":2456,"ĠSt":2457,"Ġsheep":2458,"ĠElla":2459,"Ġgives":2460,"Ġhidden":2461,"Ġcelebr":2462,"ont":2463,"Ġnormal":2464,"Ġwing":2465,"Ġbrush":2466,"Kitty":2467,"Ġcleaned":2468,"Ġlovely":2469,"Ġexplor":2470,"Ġarms":2471,"Ġfurry":2472,"Ġcrayons":2473,"Ġfront":2474,"Ġglue":2475,"Ġtrouble":2476,"ment":2477,"Ġfing":2478,"Ġcher":2479,"Ġpack":2480,"ĠMy":2481,"Ġspider":2482,"aced":2483,"Ġpenc":2484,"izza":2485,"Ġlar":2486,"Ġcage":2487,"Ġmatch":2488,"Ġpointed":2489,"Ġsugar":2490,"ĠDoggy":2491,"Ġpencil":2492,"Ġmel":2493,"ĠTheir":2494,"ĠBunny":2495,"elp":2496,"Ġappeared":2497,"urse":2498,"Ġputs":2499,"Ġprince":2500,"Ġsmelled":2501,"ned":2502,"Ġsur":2503,"Ġgate":2504,"oop":2505,"ĠLuna":2506,"Ġpray":2507,"Ġgently":2508,"osaur":2509,"ĠGrandma":2510,"yard":2511,"Ġbackyard":2512,"Ġdinosaur":2513,"Ġmatter":2514,"Ġsearch":2515,"And":2516,"Ġfil":2517,"Ġfear":2518,"Ġdrum":2519,"pa":2520,"Ġship":2521,"Ġclass":2522,"Ġgun":2523,"Ġtowel":2524,"Ġqueen":2525,"Ġcircle":2526,"Ġsmiling":2527,"Ġvan":2528,"ĠGo":2529,"Ġcouch":2530,"Ġicy":2531,"Ġtear":2532,"Ġnearby":2533,"Ġimag":2534,"aughter":2535,"Ġyelled":2536,"Ġashamed":2537,"Ġpowerful":2538,"Ġwand":2539,"Ġcri":2540,"ĠSomet":2541,"ĠJerry":2542,"Ġflag":2543,"gest":2544,"Ġplaces":2545,"Ġquest":2546,"Help":2547,"Ġlaw":2548,"Ġaf":2549,"Ġwom":2550,"Ġlamp":2551,"lev":2552,"ĠWhy":2553,"Ġdaughter":2554,"Ġpizza":2555,"Ġmir":2556,"orrow":2557,"ĠMama":2558,"icked":2559,"Ġcarried":2560,"Ġlarge":2561,"Ġwoman":2562,"My":2563,"Ġap":2564,"Ġtrust":2565,"Ġglass":2566,"Ġwrap":2567,"Ġjourney":2568,"ym":2569,"Ġgas":2570,"Ġneigh":2571,"ĠJim":2572,"Ġtrue":2573,"Ġrub":2574,"Stop":2575,"ror":2576,"vous":2577,"Ġbal":2578,"ones":2579,"Ġtries":2580,"Ġneighb":2581,"ique":2582,"ĠJill":2583,"Ġunique":2584,"Ġemb":2585,"Ġjeep":2586,"Ġignor":2587,"isp":2588,"Ġwearing":2589,"Ġfright":2590,"ensive":2591,"Ġexpensive":2592,"Ġhur":2593,"ĠIf":2594,"Ġgoes":2595,"Ġtomorrow":2596,"Ġdizzy":2597,"itter":2598,"ĠBe":2599,"Ġloves":2600,"ced":2601,"Ġdig":2602,"Ġsaf":2603,"Ġweird":2604,"Ġants":2605,"Ġthese":2606,"Ġhello":2607,"ugg":2608,"raid":2609,"Ġchase":2610,"ĠBobby":2611,"Ġdancing":2612,"Ġmirror":2613,"Ġreg":2614,"Ġspring":2615,"Ġafraid":2616,"Ġnothing":2617,"ĠBr":2618,"Ġscar":2619,"ĠTiny":2620,"arra":2621,"Ġpoor":2622,"Ġfrightened":2623,"arrass":2624,"kn":2625,"mer":2626,"ndpa":2627,"Ġcand":2628,"Ġner":2629,"Ġwhisp":2630,"Ġlazy":2631,"Ġtest":2632,"Ġeager":2633,"Ġembarrass":2634,"iff":2635,"Ġprotect":2636,"aw":2637,"Ġstood":2638,"Ġdest":2639,"Ġtomato":2640,"ness":2641,"Ġsuccess":2642,"known":2643,"Ġnervous":2644,"Ġbridge":2645,"bby":2646,"Ġsplashed":2647,"Ġpuzzle":2648,"Ġwis":2649,"Ġwip":2650,"Ġbake":2651,"Ġpay":2652,"Ġclay":2653,"Ġunknown":2654,"Ġgen":2655,"Ġgigg":2656,"Ġgold":2657,"Ġdecor":2658,"Ġimpress":2659,"Ġcreative":2660,"Ġincred":2661,"ina":2662,"Ġfeet":2663,"ventually":2664,"era":2665,"ĠRex":2666,"Ġincredible":2667,"Ġtent":2668,"Ġsol":2669,"Ġsock":2670,"Ġlead":2671,"Ġsandwich":2672,"Ġswan":2673,"Ġteeth":2674,"any":2675,"Ġuseful":2676,"ĠHow":2677,"ĠMary":2678,"Ġclock":2679,"ual":2680,"ute":2681,"ĠBird":2682,"ĠBear":2683,"Ġsteak":2684,"Ġboring":2685,"Ġrespect":2686,"Ġsoap":2687,"berry":2688,"Ġsquare":2689,"Ġdisco":2690,"Ġstraw":2691,"lves":2692,"Ġfool":2693,"Ġcloset":2694,"Ġmixed":2695,"Ġpres":2696,"Ġpump":2697,"Ġmask":2698,"owed":2699,"Ġknocked":2700,"Ġpotato":2701,"Ġpeaceful":2702,"cream":2703,"Ġburn":2704,"Ġwhale":2705,"Ġsword":2706,"Ġfamous":2707,"airs":2708,"Ġmysterious":2709,"Ġhar":2710,"Ġbean":2711,"ĠAndy":2712,"Tommy":2713,"upid":2714,"Ġgener":2715,"rated":2716,"we":2717,"Ġ3":2718,"Ġyog":2719,"Ġshark":2720,"Ġsold":2721,"Ġanswer":2722,"Ġsco":2723,"bled":2724,"cient":2725,"arl":2726,"Ġrug":2727,"Ġkicked":2728,"Ġwouldn":2729,"Ġfeed":2730,"ĠPlease":2731,"Ġpolite":2732,"com":2733,"erri":2734,"Ġancient":2735,"Ġjam":2736,"Ġmeasure":2737,"Ġdisg":2738,"Ġsnacks":2739,"Ġblow":2740,"Ġrelie":2741,"Ġcorner":2742,"ond":2743,"Ġesc":2744,"Ġspace":2745,"Ġnoisy":2746,"reen":2747,"imp":2748,"ote":2749,"Ġspread":2750,"Ġbranches":2751,"Ġscarf":2752,"Ġstupid":2753,"ĠDon":2754,"Ġpainted":2755,"ormous":2756,"Ġchocol":2757,"rob":2758,"Ġrough":2759,"Ġshoe":2760,"Ġmarch":2761,"Ġeggs":2762,"Ġwagon":2763,"Ġpaws":2764,"uce":2765,"Ġdug":2766,"Ġmoms":2767,"Ġfrust":2768,"Ġdead":2769,"Ġstudy":2770,"Ġcrown":2771,"Ġdisgust":2772,"Ġterri":2773,"Ġbarn":2774,"ĠSometimes":2775,"Ġfoolish":2776,"robe":2777,"Dad":2778,"Ġmis":2779,"enny":2780,"Ġrare":2781,"Ġsell":2782,"Ġenormous":2783,"Ġsteal":2784,"Ġpresent":2785,"getable":2786,"Ġscare":2787,"Ġunderstood":2788,"Ġvegetable":2789,"Ġsalad":2790,"Ġbanana":2791,"Ġbald":2792,"Ġmedic":2793,"Ġchocolate":2794,"Ġdisgusting":2795,"corn":2796,"edient":2797,"ighed":2798,"Ġhero":2799,"Ġstuff":2800,"ado":2801,"Ġclap":2802,"Ġgenerous":2803,"Ġmedicine":2804,"fic":2805,"Ġbitter":2806,"Ġgoose":2807,"Ġgroup":2808,"Ġdiffic":2809,"pes":2810,"Ġthick":2811,"Ġroar":2812,"ĠSammy":2813,"Ġmush":2814,"ĠInstead":2815,"Ġbreath":2816,"Ġperform":2817,"Ġfrustrated":2818,"Ġdifficult":2819,"Ġtick":2820,"Ġshadow":2821,"Ġsmaller":2822,"ĠPe":2823,"Ġmarket":2824,"Ġcovered":2825,"Ġmelon":2826,"Ġguit":2827,"Ġord":2828,"Ġtasted":2829,"Ġobedient":2830,"Ġguitar":2831,"mb":2832,"port":2833,"Ġwake":2834,"orry":2835,"roy":2836,"Ġhorn":2837,"Ġhang":2838,"ĠSome":2839,"alk":2840,"Ġlab":2841,"Ġdestroy":2842,"Ġtoug":2843,"inal":2844,"Ġmot":2845,"Ġmountain":2846,"Ġasleep":2847,"Ġref":2848,"asses":2849,"Ġbored":2850,"aking":2851,"Ġwhich":2852,"Timmy":2853,"Ġtaught":2854,"Ġstanding":2855,"land":2856,"Ġharm":2857,"Ġbecome":2858,"usual":2859,"ĠBrown":2860,"Ġrelieved":2861,"Ġsuit":2862,"Ġlif":2863,"Ġjoined":2864,"Ġterrible":2865,"Ġtough":2866,"atter":2867,"alous":2868,"Ġjung":2869,"Ġpebble":2870,"Ġmoving":2871,"Ġsquash":2872,"Ġjealous":2873,"Ġexploring":2874,"Ġmushroom":2875,"iginal":2876,"als":2877,"Ġknife":2878,"Ġyourself":2879,"Ġparrot":2880,"Ġadm":2881,"Ġjungle":2882,"Ġtun":2883,"Ġasking":2884,"Ġunusual":2885,"Ġclear":2886,"Here":2887,"Together":2888,"Ġdiscover":2889,"Ġpumpkin":2890,"Ġdull":2891,"Ġspoiled":2892,"Ġprize":2893,"Ġbul":2894,"Ġfat":2895,"atch":2896,"Ġsunf":2897,"Ġchicken":2898,"Ġtiger":2899,"Ġmighty":2900,"Ġpopcorn":2901,"Ġnuts":2902,"Ġfine":2903,"Ġthoughtful":2904,"Ġcomb":2905,"Ġhears":2906,"Ġbulb":2907,"mp":2908,"Ġsque":2909,"Ġhay":2910,"ident":2911,"Ġstri":2912,"Ġtool":2913,"ume":2914,"Ġvase":2915,"Ġtwist":2916,"ĠPoppy":2917,"Ġseeds":2918,"Ġind":2919,"erce":2920,"rag":2921,"Ġoriginal":2922,"Ġfierce":2923,"Ġdrop":2924,"Ġcop":2925,"ĠWill":2926,"Ġsnee":2927,"Ġending":2928,"Ġdrawing":2929,"Ġisland":2930,"Ġthankful":2931,"Ġcarrots":2932,"Ġcro":2933,"umsy":2934,"Ġspent":2935,"Ġmuff":2936,"Ġcheap":2937,"Inside":2938,"Ġrelax":2939,"Ġembarrassed":2940,"Ġaunt":2941,"Ġmic":2942,"selves":2943,"Ġclown":2944,"Ġbloom":2945,"Ġknowing":2946,"Ġeng":2947,"Ġfold":2948,"Ġtroubled":2949,"Are":2950,"ĠTr":2951,"oto":2952,"Ġfrown":2953,"Ġfinding":2954,"Ġtemp":2955,"Ġrecord":2956,"Ġbalance":2957,"comfortable":2958,"Ġsunflower":2959,"Ġ'":2960,"ĠMany":2961,"Ġlose":2962,"Ġuncomfortable":2963,"Ġchest":2964,"Ġhats":2965,"ser":2966,"Ġadd":2967,"Ġcone":2968,"ĠSunny":2969,"cean":2970,"ĠAl":2971,"Ġocean":2972,"Ġexciting":2973,"irsty":2974,"Ġadventur":2975,"Ġshoot":2976,"Ġguess":2977,"xible":2978,"iness":2979,"ilt":2980,"Ġstamp":2981,"Ġacorn":2982,"Ġlifted":2983,"dle":2984,"yal":2985,"Ġseal":2986,"Ġclumsy":2987,"Ġscatter":2988,"opard":2989,"Ġtrick":2990,"ĠJenny":2991,"Sorry":2992,"Ġcush":2993,"ages":2994,"Ġwrote":2995,"Ġhairy":2996,"angle":2997,"Ġpasta":2998,"Ġadventurous":2999,"Where":3000,"lace":3001,"Ġbody":3002,"Ġloyal":3003,"Ġcats":3004,"Ġunl":3005,"Ġcrazy":3006,"Ġpicks":3007,"Ġarrow":3008,"Ġnecklace":3009,"ti":3010,"Ġber":3011,"Ġdepend":3012,"Ġexam":3013,"Ġcost":3014,"Ġhose":3015,"Ġcomfortable":3016,"Ġbrace":3017,"Ġtells":3018,"Ġstubb":3019,"Ġharmless":3020,"Ġberries":3021,"apped":3022,"iant":3023,"xious":3024,"amond":3025,"urkey":3026,"Ġbehave":3027,"Ġdeliver":3028,"Ġsearched":3029,"tti":3030,"hetti":3031,"Ġanxious":3032,"aghetti":3033,"Ġdiamond":3034,"Ġorganized":3035,"Ġengine":3036,"Molly":3037,"gu":3038,"Ġfis":3039,"Ġmov":3040,"Ġremind":3041,"Ġcrayon":3042,"Ġcollect":3043,"ependent":3044,"Ġstubborn":3045,"light":3046,"Ġturkey":3047,"Ġthirsty":3048,"Ġplayful":3049,"Ġscr":3050,"Ġswe":3051,"ĠEmily":3052,"Ġpracticed":3053,"Ġstretch":3054,"host":3055,"Ġtied":3056,"Ġfrag":3057,"Ġpir":3058,"anged":3059,"Ġjug":3060,"Ġword":3061,"Ġenv":3062,"Ġenvel":3063,"Ġbubbles":3064,"Ġgloomy":3065,"Ġmailbox":3066,"dile":3067,"lph":3068,"Ġraced":3069,"illa":3070,"Ġrep":3071,"Ġspaghetti":3072,"Ġprun":3073,"Ġyours":3074,"ants":3075,"codile":3076,"Ġbarber":3077,"Ġpolice":3078,"Ġbathroom":3079,"Ġcrawl":3080,"Ġflexible":3081,"Ġindependent":3082,"How":3083,"Ġsil":3084,"Ġpro":3085,"ĠEven":3086,"Ġdeer":3087,"Ġcrack":3088,"Ġescape":3089,"ĠU":3090,"Ġghost":3091,"Ġliz":3092,"Ġpige":3093,"Ġpassed":3094,"Ġmotor":3095,"Ġfragile":3096,"aff":3097,"Ġneeds":3098,"Ġjolly":3099,"Ġdeaf":3100,"Ġcelebrate":3101,"Ġdependable":3102,"io":3103,"Ġfig":3104,"Ġbees":3105,"Ġrat":3106,"Ġdove":3107,"Ġdolph":3108,"Ġroof":3109,"Ġchess":3110,"Ġstove":3111,"ĠWhile":3112,"shine":3113,"Ġwheat":3114,"cident":3115,"Ġstat":3116,"Ġleopard":3117,"Ġflash":3118,"Ġraven":3119,"Ġattic":3120,"Ġbrill":3121,"Ġcrocodile":3122,"nic":3123,"Ġpress":3124,"Ġmap":3125,"Ġyarn":3126,"Ġlog":3127,"Ġboys":3128,"Ġsung":3129,"Ġchanged":3130,"Ġshows":3131,"Ġpainting":3132,"Ġexplained":3133,"Ġbrilliant":3134,"If":3135,"ground":3136,"Ġthu":3137,"Ġweal":3138,"Their":3139,"Ġpicnic":3140,"Ġcolour":3141,"Ġhumble":3142,"Ġer":3143,"Ġmill":3144,"Ġshiver":3145,"Ġboard":3146,"Ġtricks":3147,"Ġzip":3148,"Ġcrawled":3149,"hip":3150,"nel":3151,"Ġchoose":3152,"Ġusing":3153,"Ġignorant":3154,"Ġtemple":3155,"Ġenvelope":3156,"Me":3157,"Mama":3158,"iv":3159,"lasses":3160,"weet":3161,"Ġsend":3162,"Ġhoop":3163,"Ġfriendship":3164,"Ġframe":3165,"Ġruined":3166,"Ġballoons":3167,"Ġavoc":3168,"Ġcheerful":3169,"Ġsunglasses":3170,"met":3171,"net":3172,"inary":3173,"Ġknee":3174,"Ġpepper":3175,"Ġfolder":3176,"Ġbuilt":3177,"Ġaccident":3178,"Ġcounted":3179,"Ġbottom":3180,"Ġraft":3181,"Ġbatter":3182,"Ġpopular":3183,"most":3184,"Ġwaves":3185,"Ġpants":3186,"iddle":3187,"Ġstones":3188,"Ġhelmet":3189,"Ġrose":3190,"Ġspotted":3191,"Ġdelicate":3192,"Ġcompet":3193,"Every":3194,"work":3195,"Ġtoast":3196,"igator":3197,"Ġjack":3198,"ulu":3199,"Ġspill":3200,"Ġscreen":3201,"Ġsunshine":3202,"Ġtriangle":3203,"Ġkissed":3204,"Ġenvious":3205,"Ġsighed":3206,"Ġmiddle":3207,"erable":3208,"Ġstage":3209,"ĠYour":3210,"umpet":3211,"Ġcareless":3212,"fee":3213,"Ġtrumpet":3214,"Ġcleaning":3215,"Ġlouder":3216,"Ġmiserable":3217,"Ġlizard":3218,"Jane":3219,"ying":3220,"ĠNo":3221,"Ġwander":3222,"ither":3223,"Ġpow":3224,"Ġscale":3225,"Ġalmost":3226,"Ġserious":3227,"Ġfinger":3228,"Ġimpressive":3229,"Ġharsh":3230,"Ġvegetables":3231,"Ġtunnel":3232,"Ġpigeon":3233,"Ġstatue":3234,"Ġsailed":3235,"ĠSh":3236,"offee":3237,"seum":3238,"Ġalligator":3239,"iable":3240,"Ġhopping":3241,"Ġmaze":3242,"Ġbelt":3243,"Ġborrow":3244,"Ġbracelet":3245,"Ġmeant":3246,"Ġnosy":3247,"Ġmuseum":3248,"Ġslipped":3249,"Ġnapkin":3250,"Ġguard":3251,"Ġearth":3252,"Ġfigure":3253,"Ġbin":3254,"Ġwashed":3255,"Ġsaus":3256,"There":3257,"Ġpost":3258,"Ġtaken":3259,"Ġcompl":3260,"Ġpenny":3261,"Ġattract":3262,"Mum":3263,"Ġcoo":3264,"Ġcries":3265,"Ġcoffee":3266,"Ġgar":3267,"Ġrh":3268,"Ġhappiness":3269,"Ġhurts":3270,"Ġreliable":3271,"Ġjellyfish":3272,"Ġneighbor":3273,"Ġmovie":3274,"Ġjacket":3275,"Ġgor":3276,"Ġknight":3277,"berries":3278,"ctop":3279,"Ġfilthy":3280,"Ġordinary":3281,"Ġattractive":3282,"Ġcam":3283,"Ġgem":3284,"Ġones":3285,"Ġshore":3286,"aser":3287,"Ġradio":3288,"Ġcushion":3289,"Ġwealthy":3290,"Ġcab":3291,"omob":3292,"utomob":3293,"Ġforward":3294,"Ġboxes":3295,"Ġpeach":3296,"Ġmagnet":3297,"Ġwalks":3298,"ipper":3299,"Ġbelonged":3300,"Ġmuffin":3301,"utomobile":3302,"live":3303,"Ġtag":3304,"Ġshade":3305,"Ġlocked":3306,"Ġnod":3307,"Ġshells":3308,"Ġpoured":3309,"Ġgorilla":3310,"Ġcamera":3311,"pack":3312,"zzy":3313,"Ġautomobile":3314,"llip":3315,"Ġlollip":3316,"Ġfluffy":3317,"Ġboats":3318,"Ġpersist":3319,"Ġanswered":3320,"Ġregular":3321,"Ġwhispered":3322,"Ġdolphin":3323,"Ġcabin":3324,"Ġlollipop":3325,"appy":3326,"Ġtimes":3327,"ony":3328,"Ġnods":3329,"Ġdrawer":3330,"Ġgiving":3331,"Ġdesk":3332,"dom":3333,"Ġfour":3334,"Ġweek":3335,"ĠMiss":3336,"Ġload":3337,"Ġmule":3338,"Ġcreate":3339,"Ġsmoke":3340,"Ġsailor":3341,"Ġcompetit":3342,"cles":3343,"omes":3344,"Ġgum":3345,"uth":3346,"Ġoctop":3347,"Ġsaying":3348,"Ġchu":3349,"Ġlotion":3350,"Ġtravel":3351,"coa":3352,"Ġjudge":3353,"Ġwitch":3354,"ete":3355,"Ġang":3356,"ĠJake":3357,"inky":3358,"Ġsniff":3359,"Ġtwig":3360,"Ġstronger":3361,"Ġdelight":3362,"Ġcupboard":3363,"ĠToday":3364,"Ġshrimp":3365,"Ġchubby":3366,"Go":3367,"ging":3368,"und":3369,"Ġwool":3370,"Ġlibr":3371,"ict":3372,"Ġhouses":3373,"Ġbubble":3374,"Ġinvited":3375,"Ġreturned":3376,"Ġsuccessful":3377,"Ġgarage":3378,"Ġhelpless":3379,"urb":3380,"Ġlean":3381,"Ġshowing":3382,"Ġnicely":3383,"Ġmole":3384,"Ġneedle":3385,"essie":3386,"Ġlively":3387,"Ġsupport":3388,"Ġdough":3389,"Ġumb":3390,"Ġyet":3391,"Ġhelps":3392,"Ġalert":3393,"Ġmoder":3394,"Who":3395,"Ġgrown":3396,"Ġfearful":3397,"Ġpersistent":3398,"Ġumbre":3399,"anut":3400,"Ġthie":3401,"Ġshine":3402,"Ġfridge":3403,"Ġclub":3404,"Ġgets":3405,"Ġtrunk":3406,"Ġdreams":3407,"Ġdisturb":3408,"Ġradish":3409,"Ġsolve":3410,"Ġscoot":3411,"Ġsquee":3412,"Ġlow":3413,"anger":3414,"ĠLulu":3415,"Ġlicked":3416,"Ġdecide":3417,"Ġbedroom":3418,"Ġsleeping":3419,"Ġvalue":3420,"Ġcooked":3421,"Ġoctopus":3422,"Ġmodern":3423,"oin":3424,"Ġrepe":3425,"Ġcarp":3426,"Ġloudly":3427,"Ġbounced":3428,"Ġcere":3429,"Ġcreature":3430,"Ġot":3431,"Ġtank":3432,"Ġtire":3433,"Ġsle":3434,"Ġbase":3435,"Ġhive":3436,"Ġdive":3437,"Ġcity":3438,"ĠSn":3439,"Ġuncle":3440,"Ġsort":3441,"Ġways":3442,"Ġquar":3443,"Ġacce":3444,"Ġspeed":3445,"Ġspeak":3446,"Ġwishes":3447,"Ġotter":3448,"Ġhipp":3449,"Ġgym":3450,"ense":3451,"Ġlearning":3452,"Ġtruth":3453,"Ġharder":3454,"azz":3455,"Ġsplit":3456,"Ġcandle":3457,"Ġthunder":3458,"Ġeraser":3459,"Ġumbrella":3460,"Ġlit":3461,"orable":3462,"Ġstation":3463,"Ġspend":3464,"Sarah":3465,"Ġrepair":3466,"cut":3467,"xy":3468,"Ġfather":3469,"Ġmop":3470,"Ġmild":3471,"ilty":3472,"ric":3473,"Ġchalk":3474,"Ġorder":3475,"Ġguilty":3476,"Ġcherries":3477,"Ġcereal":3478,"Billy":3479,"ye":3480,"iron":3481,"Ġbiggest":3482,"Ġjet":3483,"ulif":3484,"Ġcocoa":3485,"Ġvine":3486,"Ġpointing":3487,"Ġwheels":3488,"Ġjewelry":3489,"Ġflashlight":3490,"Ġthief":3491,"Ġquarrel":3492,"Ġed":3493,"Ġsink":3494,"Ġhomes":3495,"Ġfountain":3496,"atient":3497,"Ġsoar":3498,"tern":3499,"Ġknot":3500,"Ġgrace":3501,"Ġimpatient":3502,"Ġadorable":3503,"Ġcact":3504,"Ġcaulif":3505,"ĠRob":3506,"ĠTrue":3507,"gen":3508,"asing":3509,"Ġhappening":3510,"Ġpowder":3511,"Ġlibrary":3512,"Ġcarpet":3513,"Ġcactus":3514,"Ġcase":3515,"Ġherb":3516,"Ġstream":3517,"Ġforth":3518,"Ġskipped":3519,"Ġoffice":3520,"Ġpengu":3521,"Ġsweater":3522,"Ġlying":3523,"Ġhalf":3524,"irit":3525,"Ġstaff":3526,"keep":3527,"Ġfork":3528,"Ġshield":3529,"Ġflute":3530,"Ġgrandpa":3531,"ĠDolly":3532,"Bobo":3533,"arming":3534,"Ġfisher":3535,"ject":3536,"rn":3537,"isted":3538,"ory":3539,"rage":3540,"oby":3541,"Ġwhenever":3542,"Ġcharming":3543,"Ġgrapes":3544,"Ġhandle":3545,"Ġhippo":3546,"esday":3547,"Ġskin":3548,"Ġtripped":3549,"Ġcounting":3550,"assion":3551,"Ġvalu":3552,"Ġfeathers":3553,"Ġangel":3554,"Ġcauliflower":3555,"ped":3556,"zed":3557,"Ġtap":3558,"Ġhunt":3559,"Ġled":3560,"Ġelev":3561,"Ġthemselves":3562,"acht":3563,"Ġknows":3564,"ĠPeter":3565,"Ġmarry":3566,"Ġdesign":3567,"Ġthinking":3568,"Ġstrawberry":3569,"Ġticket":3570,"Ġavocado":3571,"Ġslept":3572,"Ġelevator":3573,"was":3574,"edy":3575,"Ġyacht":3576,"Ġeventually":3577,"Ġspun":3578,"Ġteleph":3579,"Ġgifted":3580,"Ġwrapped":3581,"Ġdishwas":3582,"Ġcomplain":3583,"Ġcompetitive":3584,"Ġtelephone":3585,"Ġdishwasher":3586,"Ġiron":3587,"ellig":3588,"Ġintellig":3589,"Ġexcite":3590,"Ġskip":3591,"Ġshrink":3592,"Mummy":3593,"Ġsauce":3594,"Ġtray":3595,"Ġtowers":3596,"Ġquit":3597,"Ġhaircut":3598,"Ġcompassion":3599,"Ġphoto":3600,"Ġdisappoin":3601,"Ġflea":3602,"Ġgathered":3603,"Ġwire":3604,"ĠTweet":3605,"Ġdeter":3606,"Ġnurse":3607,"ates":3608,"rill":3609,"Ġanch":3610,"Ġpole":3611,"Ġpoem":3612,"ĠRose":3613,"Ġgiggled":3614,"Ġdecorate":3615,"Ġpirate":3616,"Jim":3617,"bul":3618,"Ġaer":3619,"Ġtoe":3620,"Ġtorn":3621,"Ġwaff":3622,"Ġham":3623,"Ġshape":3624,"elery":3625,"opl":3626,"Ġambul":3627,"Ġrestless":3628,"Ġears":3629,"Ġcricket":3630,"Ġquestion":3631,"Ġvaluable":3632,"Ġanchor":3633,"Ġaeropl":3634,"Ġambulance":3635,"Fluffy":3636,"Ġnumb":3637,"Ġyaw":3638,"Ġvide":3639,"Ġhotel":3640,"Ġbarrel":3641,"Ġbuttons":3642,"Ġslides":3643,"Ġdeterm":3644,"Give":3645,"ision":3646,"ats":3647,"aged":3648,"Ġstranger":3649,"ache":3650,"Ġsett":3651,"Ġedge":3652,"Ġsight":3653,"Ġwife":3654,"Ġbull":3655,"Ġcelery":3656,"ating":3657,"Ġshut":3658,"Ġmeal":3659,"Ġtrail":3660,"Ġzipper":3661,"body":3662,"Ġpattern":3663,"Ġtears":3664,"Ġunlock":3665,"Ġnumbers":3666,"old":3667,"Ġpit":3668,"Ġweigh":3669,"ĠBoun":3670,"Ġtrap":3671,"Ġmeans":3672,"Ġbushes":3673,"Ġribb":3674,"Ġlaughs":3675,"Ġspinning":3676,"Ġsalt":3677,"ĠJimmy":3678,"Ġfisherman":3679,"Ġintelligent":3680,"Ġcompassionate":3681,"Ġdisappointed":3682,"del":3683,"Ġple":3684,"?\".":3685,"Ġmodel":3686,"Ġcomput":3687,"Ġcardboard":3688,"Ġbananas":3689,"head":3690,"ĠToby":3691,"ital":3692,"Ġmug":3693,"Ġink":3694,"Ġeither":3695,"Ġnewsp":3696,"iew":3697,"Ġview":3698,"Ġhosp":3699,"Ġpear":3700,"ĠKim":3701,"ĠPete":3702,"Ġwalls":3703,"Ġjuicy":3704,"Ġsurf":3705,"Ġsoldier":3706,"keeper":3707,"Ġhospital":3708,"Ġadded":3709,"ito":3710,"Ġcurt":3711,"Ġmitten":3712,"Ġrid":3713,"Ġshort":3714,"Ġbirdc":3715,"Ġoil":3716,"quito":3717,"dest":3718,"ophie":3719,"'d":3720,"Mr":3721,"nam":3722,"Ġpal":3723,"Ġpap":3724,"Ġnail":3725,"ention":3726,"Ġspear":3727,"Ġpee":3728,"Ġprep":3729,"Ġdistant":3730,"Ġsucce":3731,"Ġsafely":3732,"ĠPeople":3733,"Ġsilver":3734,"Ġcurtain":3735,"Ġbirdcage":3736,"squito":3737,"!\".":3738,"ushed":3739,"Ġmosquito":3740,"Ġenc":3741,"Ġcrib":3742,"Ġspilled":3743,"aving":3744,"ron":3745,"Ġtummy":3746,"Ġtask":3747,"Ġbump":3748,"Ġcob":3749,"Ġpurse":3750,"utes":3751,"Ġplayground":3752,"uring":3753,"Ġrode":3754,"Ġcoins":3755,"Ġpale":3756,"Ġpainter":3757,"Ġlights":3758,"Ġdreamed":3759,"uper":3760,"Ġbikes":3761,"ĠBuzz":3762,"Ġquestions":3763,"Ġwiped":3764,"Ġyogurt":3765,"Ġlabel":3766,"Ġcostume":3767,"par":3768,"Ġspirit":3769,"Ġglove":3770,"Ġshocked":3771,"Ġpretending":3772,"ĠOK":3773,"Ġminutes":3774,"Ġrubber":3775,"Ġmotorcy":3776,"Ġgraceful":3777,"Ġaeroplane":3778,"Ġsucceed":3779,",âĢĿ":3780,"ait":3781,"inoc":3782,"Ġdust":3783,"Ġpor":3784,"ately":3785,"Ġitself":3786,"Ġstack":3787,"ĠLittle":3788,"Ġhelic":3789,"urch":3790,"opter":3791,"Ġcoal":3792,"Ġchain":3793,"Ġfalls":3794,"Ġcollar":3795,"Ġprov":3796,"Ġsausage":3797,"Ġcomputer":3798,"Ġpalace":3799,"inocer":3800,"Ġhelicopter":3801,"riger":3802,"uel":3803,"Ġpun":3804,"stal":3805,"Ġknob":3806,"Ġornam":3807,"Ġkindness":3808,"Ġcrystal":3809,"Ġscooter":3810,"inoceros":3811,"rigerator":3812,"Ġornament":3813,"Ġax":3814,"ĠTeddy":3815,"Ġlime":3816,"Ġmelt":3817,"Ġgear":3818,"Ġoak":3819,"Ġrod":3820,"Ġgolf":3821,"Ġfauc":3822,"Ġparade":3823,"Ġpacked":3824,"Ġsteps":3825,"Ġfaucet":3826,"Ġhour":3827,"Ġthose":3828,"Ġlie":3829,"Ġleash":3830,"Ġvend":3831,"Ġmodest":3832,"ĠEverywhere":3833,"Ġeye":3834,"umbled":3835,"Ġrefrigerator":3836,"Ġbaseball":3837,"Ġnewspaper":3838,"Is":3839,"cing":3840,"Ġsuper":3841,"Ġfog":3842,"Ġcable":3843,"ofa":3844,"ilot":3845,"Ġlic":3846,"ĠBill":3847,"ugged":3848,"Ġsepar":3849,"Ġmakeup":3850,"Ġfirew":3851,"Ġhate":3852,"Ġpicking":3853,"Ġdriving":3854,"Ġmatt":3855,"Ġbrothers":3856,"Ġcomplet":3857,"Ġdisappeared":3858,"Ġavail":3859,"levision":3860,"Ġrhinoceros":3861,"Ġfirework":3862,"Ġoft":3863,"Ġsofa":3864,"Ġpine":3865,"Ġinse":3866,"stri":3867,"Ġonion":3868,"Ġnovel":3869,"Ġtelevision":3870,"ĠGive":3871,"Ġswinging":3872,"ampoo":3873,"Ġresc":3874,"Ġserve":3875,"ĠSpike":3876,"Ġvideo":3877,"Ġlicense":3878,"Ġoften":3879,"Well":3880,"aked":3881,"roph":3882,"time":3883,"Ġhook":3884,"Ġmath":3885,"Ġhall":3886,"Ġmanaged":3887,"Ġspell":3888,"Ġchurch":3889,"ĠCl":3890,"Ġrubbed":3891,"Ġcups":3892,"Ġpolish":3893,"Ġmedal":3894,"ĠBirdy":3895,"Ġdetermined":3896,"Ġaxe":3897,"Ġavailable":3898,"ĠBet":3899,"ĠMum":3900,"Ġscrew":3901,"Ġmeadow":3902,"Ġalarm":3903,"ĠFo":3904,"Ġdrawings":3905,"Ġtaller":3906,"Ġbags":3907,"Ġcooler":3908,"Ġmissile":3909,"Ġsparkly":3910,"Ġdisappear":3911,"web":3912,"Ġcobweb":3913,"Ġporch":3914,"rophone":3915,"ckey":3916,"drobe":3917,"Ġig":3918,"arry":3919,"stairs":3920,"htub":3921,"Ġstared":3922,"Ġhockey":3923,"Ġgrowl":3924,"Ġclimbing":3925,"Ġmetal":3926,"Ġbookshe":3927,"Ġbasketball":3928,"Ġbathtub":3929,"Ġwardrobe":3930,"Ġbandage":3931,"Ġdiary":3932,"Ġpenguin":3933,"Ġvendor":3934,"Bye":3935,"hus":3936,"loo":3937,"ready":3938,"Ġmay":3939,"erc":3940,"Ġthread":3941,"Ġostri":3942,"Ġmeat":3943,"Ġalready":3944,"Ġrice":3945,"Ġrolling":3946,"ĠJohnny":3947,"Ġveil":3948,"Ġminer":3949,"Ġenthus":3950,"Ġcherry":3951,"Ġgasped":3952,"Ġhurry":3953,"Ġbattery":3954,"Ġigloo":3955,"Ġbookshelf":3956,"Ġenthusia":3957,"Re":3958,"Wait":3959,"Ġcomet":3960,"omed":3961,"Ġitch":3962,"Ġrise":3963,"Ġroot":3964,"Ġknock":3965,"Ġswung":3966,"Ġgrape":3967,"Ġmagaz":3968,"ĠPipp":3969,"Ġexplain":3970,"Ġstud":3971,"Ġorganize":3972,"Ġstretched":3973,"ĠSnow":3974,"Ġhunter":3975,"Ġpapers":3976,"Ġinsect":3977,"Al":3978,"See":3979,"Ġbicy":3980,"Ġlumber":3981,"Ġmummy":3982,"verse":3983,"Ġnotice":3984,"Ġok":3985,"istol":3986,"affe":3987,"Ġobject":3988,"Ġmicrophone":3989,"Ġmotorcycle":3990,"Ġmattress":3991,"nger":3992,"Ġdess":3993,"Ġpilot":3994,"Ġpistol":3995,"Ġreward":3996,"Ġexerc":3997,"Ġflame":3998,"Ġsnap":3999,"Ġimpro":4000,"Ġcooking":4001,"Ġrealised":4002,"Ġmustache":4003,"Ġdreaming":4004,"Ġarg":4005,"ricane":4006,"Ġencou":4007,"Gra":4008,"aul":4009,"Ġfought":4010,"Ġsheet":4011,"ometer":4012,"Ġflour":4013,"asp":4014,"Ġunpack":4015,"Ġtroph":4016,"Ġvolc":4017,"Ġwallet":4018,"Ġwinter":4019,"Ġblackboard":4020,"ĠZoomy":4021,"Ġsuggest":4022,"Ġjokes":4023,"Ġvolcan":4024,"lter":4025,"ĠLee":4026,"Ġblin":4027,"Ġpeanut":4028,"rmometer":4029,"ipe":4030,"aches":4031,"Ġfalling":4032,"Ġbuckle":4033,"Ġpastry":4034,"Ġnetwork":4035,"iano":4036,"Ġbicycle":4037,"Ouch":4038,"aid":4039,"Ġbent":4040,"Ġcamp":4041,"Ġrake":4042,"Ġshampoo":4043,"Ġsunset":4044,"Ġvi":4045,"Ġcalling":4046,"Ġtrucks":4047,"Ġtrophy":4048,"Ġvolcano":4049,"Ġpiano":4050,"Ġstom":4051,"Ġweep":4052,"Ġneat":4053,"aky":4054,"ĠPandy":4055,"Ġdrain":4056,"Ġbeef":4057,"Ġattach":4058,"Ġpractice":4059,"Ġpressed":4060,"Ġostrich":4061,"lies":4062,"Ġstable":4063,"Ġshelter":4064,"ured":4065,"Ġmem":4066,"Ġpoke":4067,"Ġteasp":4068,"Ġbury":4069,"Ġsweetie":4070,"Ġtrains":4071,"angu":4072,"Ġhuman":4073,"Ġpackage":4074,"Ġapron":4075,"Ġhanging":4076,"Ġhammer":4077,"Ġhours":4078,"Ġteaspoon":4079,"Ġow":4080,"Ġsym":4081,"Ġhut":4082,"aroo":4083,"Ġins":4084,"Ġrag":4085,"Ġkang":4086,"ummer":4087,"Ġagainst":4088,"Ġblouse":4089,"Ġsne":4090,"Ġoffered":4091,"Ġtrack":4092,"Ġsquirrels":4093,"Ġmessage":4094,"Ġenjoying":4095,"bol":4096,"Ġpatch":4097,"Ġmarched":4098,"Ġcrane":4099,"Ġdiscovered":4100,"Ġkangaroo":4101,"ube":4102,"zag":4103,"Ġtube":4104,"Ġlend":4105,"Ġlangu":4106,"igzag":4107,"Ġur":4108,"Ġfactor":4109,"ĠJo":4110,"Ġskull":4111,"Ġskirt":4112,"play":4113,"Ġdisplay":4114,"Ġearly":4115,"Ġpassport":4116,"Ġprunes":4117,"Ġmagazine":4118,"Ġsymbol":4119,"Ġfactory":4120,"Ġfuel":4121,"Ġnation":4122,"ature":4123,"Ġstairs":4124,"ĠFro":4125,"Ġfrogs":4126,"Ġshovel":4127,"Ġholds":4128,"Ġprevent":4129,"Ġfingers":4130,"Ġexcitement":4131,"Ġpeeked":4132,"Little":4133,"Ġten":4134,"Ġson":4135,"Ġcell":4136,"Ġrot":4137,"stic":4138,"Ġonce":4139,"ĠLook":4140,"Ġlip":4141,"ĠBessie":4142,"Ġuniver":4143,"Ġcheck":4144,"Ġperm":4145,"Ġcastles":4146,"ĠZip":4147,"Ġbathe":4148,"Ġjournal":4149,"Ġaccidentally":4150,"Ġenthusiastic":4151,"Ġdessert":4152,"Ġske":4153,"Ġtheater":4154,"leton":4155,"Ġhappier":4156,"Ġjunk":4157,"Ġoy":4158,"Ġkne":4159,"ĠDan":4160,"Ġpopped":4161,"Ġcube":4162,"Ġopens":4163,"Ġfreez":4164,"Ġfootball":4165,"Ġyoga":4166,"ium":4167,"ience":4168,"Ġthermometer":4169,"Ġfive":4170,"Ġcord":4171,"Ġpipe":4172,"Ġhedge":4173,"ĠHere":4174,"Ġshaking":4175,"Ġallowed":4176,"Ġloop":4177,"ffic":4178,"Ġtelling":4179,"Ġreading":4180,"Ġmatches":4181,"Ġgrowing":4182,"Ġbathrobe":4183,"Ġzoomed":4184,"ĠBuzzy":4185,"Ġskeleton":4186,"come":4187,"ĠâĢ":4188,"ination":4189,"Ġfastest":4190,"Ġslipp":4191,"azor":4192,"Ġdisag":4193,"Ġrestore":4194,"Ġdistance":4195,"xygen":4196,"ney":4197,"ines":4198,"Ġhanger":4199,"Ġstumbled":4200,"ionary":4201,"Ġlistening":4202,"Ġpinch":4203,"ictionary":4204,"case":4205,"Ġahead":4206,"Ġdictionary":4207,"hero":4208,"Ġgoal":4209,"Ġpeek":4210,"Ġplanet":4211,"Ġstirred":4212,"Ġfilm":4213,"Ġadmire":4214,"Ġribbon":4215,"Ġsuperhero":4216,"Ġviol":4217,"Joe":4218,"Sh":4219,"fast":4220,"Ġtoile":4221,"ĠTina":4222,"Ġgaz":4223,"ĠMummy":4224,"Ġhelper":4225,"Ġreverse":4226,"Ġalive":4227,"Ġchose":4228,"Ġsurprises":4229,"Ġstickers":4230,"Ġtrash":4231,"Ġbrick":4232,"Ġcomplete":4233,"Ġviolin":4234,"Ġsub":4235,"Ġpony":4236,"arian":4237,"Ġchasing":4238,"Ġpoppy":4239,"Ġjumps":4240,"Ġstrugg":4241,"Ġstops":4242,"astic":4243,"Jill":4244,"cu":4245,"Ġbill":4246,"Ġcudd":4247,"Ġlaund":4248,"iest":4249,"apon":4250,"ĠEllie":4251,"place":4252,"Ġdoesn":4253,"Ġbreakfast":4254,"Ġrail":4255,"Ġcircles":4256,"Ġrespectful":4257,"Ġaccept":4258,"Ġmineral":4259,"Ġblinked":4260,"Ġfreezer":4261,"Ġlaundry":4262,"lid":4263,"Ġsummer":4264,"Ġtooth":4265,"render":4266,"Ġgrill":4267,"Ġplayer":4268,"Ġbeet":4269,"stiv":4270,"chan":4271,"Ġrefused":4272,"Ġleaving":4273,"Ġlaser":4274,"Ġswitch":4275,"Ġfestiv":4276,"Ġvest":4277,"Ġhurricane":4278,"Ġstrip":4279,"Ġexercise":4280,"Ġtoilet":4281,"Ġfestival":4282,"Ġstad":4283,"Ġleak":4284,"Ġholid":4285,"Ġdoors":4286,"ĠMrs":4287,"Ġlions":4288,"Ġfireplace":4289,"Ġcabinet":4290,"Ġwaffle":4291,"Ġlanguage":4292,"Ġstadium":4293,"Ġholiday":4294,"Did":4295,"Ġberry":4296,"Ġmen":4297,"htray":4298,"Ġmeowed":4299,"ĠElly":4300,"Ġtwir":4301,"Ġrules":4302,"Ġairport":4303,"Ġmonkeys":4304,"ĠZoom":4305,"Ġmint":4306,"Ġspoke":4307,"Ġsearching":4308,"Ġsneeze":4309,"Ġsniffed":4310,"Ġpleased":4311,"Em":4312,"Ow":4313,"med":4314,"wards":4315,"Ġtip":4316,"Ġrazor":4317,"Ġoats":4318,"iches":4319,"Ġroared":4320,"Ġslap":4321,"Ġcomfort":4322,"Ġtraffic":4323,"Ġfavour":4324,"Ġforgave":4325,"Ġtightly":4326,"Ġlemons":4327,"Ġsandwiches":4328,"Ġlawn":4329,"ĠBetty":4330,"ki":4331,"Ġsent":4332,"ince":4333,"Ġcur":4334,"Ġnature":4335,"imney":4336,"iggly":4337,"Ġplastic":4338,"ĠMar":4339,"Ġashtray":4340,"Ġmechan":4341,"Ġcaring":4342,"Ġagree":4343,"Ġfinds":4344,"Ġchimney":4345,"Ġanyway":4346,"Ġslip":4347,"Ġpair":4348,"Ġsticker":4349,"ĠOr":4350,"Ġwindows":4351,"Ġobser":4352,"Ġmeeting":4353,"Ġboots":4354,"Ġseparate":4355,"Ġstomach":4356,"Ġfavourite":4357,"Ġmechanic":4358,"sses":4359,"ĠJazz":4360,"Ġunite":4361,"Ġener":4362,"Ġblueberry":4363,"ement":4364,"Ġbreat":4365,"Ġlightning":4366,"Ġmixer":4367,"Ġcows":4368,"Ġresist":4369,"Ġgrabs":4370,"Ġbarking":4371,"Ġtomatoes":4372,"Ġbeetle":4373,"hic":4374,"year":4375,"ĠY":4376,"Ġcards":4377,"ĠAre":4378,"Ġgiraffe":4379,"Ġsport":4380,"Ġpoked":4381,"Ġholes":4382,"Ġpoint":4383,"Ġletters":4384,"Ġvehic":4385,"Ġminute":4386,"Ġbelongs":4387,"Ġclassroom":4388,"Ġimagine":4389,"Ġsubway":4390,"book":4391,"la":4392,"night":4393,"ayak":4394,"ĠSophie":4395,"amber":4396,"ĠBig":4397,"Ġkayak":4398,"hter":4399,"Ġlaughter":4400,"Ġflood":4401,"Ġremove":4402,"Ġnotebook":4403,"Ġinvite":4404,"Ġmistakes":4405,"ĠBounce":4406,"ĠPippin":4407,"Ġoyster":4408,"Ġbillboard":4409,"te":4410,"Ġyield":4411,"Ġrac":4412,"Ġnames":4413,"Ġoxygen":4414,"apa":4415,"Ġhanded":4416,"Ġremain":4417,"Ġcountry":4418,"Ġpuddles":4419,"Ġmusician":4420,"Ġcartoon":4421,"ĠAlice":4422,"Ġleaned":4423,"Ġimprove":4424,"cast":4425,"Ġsudden":4426,"Ġsize":4427,"ĠSandy":4428,"chair":4429,"Ġwhip":4430,"Ġchamber":4431,"Ġproudly":4432,"Ġbookcase":4433,"Ġsandcast":4434,"Ġswamp":4435,"Ġwarn":4436,"Ġwarned":4437,"Ġspoil":4438,"Ġproblems":4439,"Ġcourage":4440,"Ġglowing":4441,"Jimmy":4442,"eb":4443,"vice":4444,"Ġwine":4445,"inarian":4446,"lend":4447,"igi":4448,"Ġbeep":4449,"Ġsadly":4450,"Ġabove":4451,"Ġpushes":4452,"ĠRu":4453,"Ġpulls":4454,"Ġdancer":4455,"ola":4456,"eterinarian":4457,"Ġlawy":4458,"Ġwipe":4459,"Ġstrawberries":4460,"Ġfre":4461,"Ġpages":4462,"ison":4463,"Ġnavy":4464,"Ġsoil":4465,"Ġcliff":4466,"Ġcopper":4467,"Ġtrade":4468,"Ġappl":4469,"Ġsandbox":4470,"Ġbutterflies":4471,"Ġceiling":4472,"Ġpanic":4473,"Ġsurrender":4474,"Ġfrowned":4475,"Ġrescue":4476,"Ġslippery":4477,"ccol":4478,"Ġx":4479,"Ġpage":4480,"Ġfort":4481,"Ġrece":4482,"usie":4483,"Ġveterinarian":4484,"Ġfeelings":4485,"rod":4486,"Ġtease":4487,"Ġkinds":4488,"ĠPolly":4489,"emember":4490,"ĠOw":4491,"Ġplanes":4492,"Ġart":4493,"Ġarmchair":4494,"Ġincre":4495,"Ġcarrying":4496,"Ġkneel":4497,"ccoli":4498,"gie":4499,"Ġext":4500,"Ġstair":4501,"Ġweapon":4502,"ecause":4503,"Ġintrod":4504,"aud":4505,"Ġbrightly":4506,"Ġdelay":4507,"Ġbelieved":4508,"Ġignore":4509,"Ġrepeat":4510,"Ġprovide":4511,"Ġenergy":4512,"ebra":4513,"cer":4514,"lu":4515,"nesday":4516,"ednesday":4517,"Ġlid":4518,"Ġped":4519,"Ġwaste":4520,"Ġheat":4521,"Ġsomewhere":4522,"rosc":4523,"ĠCo":4524,"anda":4525,"ĠPaul":4526,"Ġcalend":4527,"Ġmailman":4528,"Ġshakes":4529,"Ġprayed":4530,"Ġregret":4531,"Ġtools":4532,"roscope":4533,"Ġcalendar":4534,"low":4535,"Ġaw":4536,"imed":4537,"Ġsaving":4538,"Ġlives":4539,"Ġmeas":4540,"ĠWhere":4541,"Ġnobody":4542,"Ġolder":4543,"Ġadvice":4544,"Ġkeeping":4545,"Ġsounded":4546,"Ġzebra":4547,"olog":4548,"ĠGod":4549,"Ġapolog":4550,"Ġreminded":4551,"Ġsandcastle":4552,"itation":4553,"elcome":4554,"Ġcane":4555,"Your":4556,"Ġflies":4557,"Ġanywhere":4558,"Ġraise":4559,"Ġfreeze":4560,"Ġchoice":4561,"Ġprice":4562,"Ġmystery":4563,"Ġvehicle":4564,"Ġlawyer":4565,"eer":4566,"Ġtax":4567,"hest":4568,"ĠSu":4569,"Ġrushed":4570,"Ġshone":4571,"Ġstarts":4572,"Ġrooms":4573,"Ġletting":4574,"Ġsoftly":4575,"Ġdear":4576,"Ġshouts":4577,"Ġchairs":4578,"Ġbreaks":4579,"Ġhappens":4580,"ĠGrandpa":4581,"Ġinclu":4582,"Ġcrossed":4583,"Ġimagined":4584,"Ġcolourful":4585,"Ġsuggested":4586,"Ġpitch":4587,"lex":4588,"alley":4589,"ores":4590,"ĠWiggly":4591,"aggie":4592,"Ġeaten":4593,"Ġexcitedly":4594,"ogn":4595,"ĠPapa":4596,"ĠGigi":4597,"Ġrestaur":4598,"Ġsmells":4599,"Ġreplace":4600,"Ġrecogn":4601,"ĠNext":4602,"Ġchickens":4603,"Ġsqueeze":4604,"Ġapplaud":4605,"Ġtaxi":4606,"Ġrestaurant":4607,"Mark":4608,"Mary":4609,"Next":4610,"eor":4611,"Ġtub":4612,"Ġfile":4613,"Ġgain":4614,"indeer":4615,"Ġolive":4616,"Ġreindeer":4617,"Ġtrem":4618,"Ġranch":4619,"Ġvalley":4620,"ĠCarl":4621,"Ġbroccoli":4622,"Ġrained":4623,"Ġsteam":4624,"Ġcontent":4625,"apping":4626,"Ġblowing":4627,"eorge":4628,"ĠV":4629,"Ġequ":4630,"ĠWould":4631,"ĠWednesday":4632,"Ġended":4633,"Ġdishes":4634,"ĠSte":4635,"arlie":4636,"Ġmicroscope":4637,"Ġextra":4638,"Yay":4639,"Yuck":4640,"na":4641,"Ġdare":4642,"ero":4643,"utor":4644,"Ġevent":4645,"Ġreve":4646,"ected":4647,"Ġspade":4648,"Ġblueberries":4649,"Ġmass":4650,"Ġhung":4651,"Ġbouncing":4652,"Ġchewed":4653,"Ġbarks":4654,"Ġsneezed":4655,"Ġdelighted":4656,"Ġtornado":4657,"Ġprepare":4658,"Ġfresh":4659,"Daisy":4660,"Will":4661,"tain":4662,"vet":4663,"Ġtutor":4664,"Ġgro":4665,"ĠFl":4666,"Ġmyself":4667,"Ġchance":4668,"Ġpoison":4669,"Ġheads":4670,"Ġhoping":4671,"ggy":4672,"Ġscold":4673,"Ġsettle":4674,"Ġriding":4675,"Ġargue":4676,"ĠBinky":4677,"illie":4678,"Ġopera":4679,"Ġvac":4680,"Ġquiz":4681,"Ġshrugged":4682,"ĠFreddy":4683,"Ready":4684,"Ġvacation":4685,"Qu":4686,"Ġsuff":4687,"Ġbend":4688,"Ġweather":4689,"Ġseas":4690,"asis":4691,"Ġchores":4692,"ĠEnd":4693,"Ġskill":4694,"Ġevening":4695,"ipment":4696,"Ġfloat":4697,"Ġdiscu":4698,"Ġprints":4699,"Ġmissing":4700,"Ġbaking":4701,"ĠSpark":4702,"Ġenter":4703,"Ġgiggle":4704,"Ġburned":4705,"Ġshivering":4706,"Ġequipment":4707,"Ġdiscuss":4708,"noon":4709,"Ġmention":4710,"Ġsty":4711,"Ġoasis":4712,"ucture":4713,"Ġstructure":4714,"Ġafternoon":4715,"Ġpushing":4716,"Ġfixing":4717,"acked":4718,"Ġthanks":4719,"Ġinvitation":4720,"Ġprune":4721,"Ġreveal":4722,"ky":4723,"heart":4724,"inking":4725,"Ġdem":4726,"Ġplaced":4727,"ĠLilly":4728,"Ġsocks":4729,"Ġgrand":4730,"Ġwriting":4731,"Ġhills":4732,"Ġperfume":4733,"Ġspots":4734,"Ġthrows":4735,"Ġthrowing":4736,"Ġpuzzles":4737,"Ġtrusted":4738,"ĠUnder":4739,"Ġyawned":4740,"Ġbumped":4741,"Ann":4742,"sity":4743,"Ġluck":4744,"Ġmall":4745,"ana":4746,"ĠMike":4747,"Ġparts":4748,"Ġtracks":4749,"Ġbelow":4750,"otten":4751,"Ġcoats":4752,"Ġcaptain":4753,"Ġbeans":4754,"Ġinsisted":4755,"\",":4756,"Buddy":4757,"Ch":4758,"ef":4759,"happy":4760,"Ġsigh":4761,"ĠMe":4762,"Ġsew":4763,"Ġcared":4764,"Ġshower":4765,"Ġshoulder":4766,"Ġsticky":4767,"Ġfollowing":4768,"Ġbrighter":4769,"Ġsweetheart":4770,"Ġclaw":4771,"queaky":4772,"Ġprinted":4773,"Ġpastel":4774,"All":4775,"Not":4776,"mend":4777,"va":4778,"Ġpanda":4779,"ommend":4780,"ĠBow":4781,"Ġexpect":4782,"Ġunhappy":4783,"Ġgreedy":4784,"peedy":4785,"Ġteaching":4786,"Ġrecommend":4787,"Ġimpressed":4788,"ĠUn":4789,"Ġpunish":4790,"look":4791,"ĠHave":4792,"ĠHoppy":4793,"Ġbeg":4794,"iform":4795,"Ġuniform":4796,"ĠRo":4797,"ations":4798,"Ġdeeper":4799,"Ġexper":4800,"uggage":4801,"Ġcandles":4802,"Jenny":4803,"lp":4804,"nce":4805,"oof":4806,"Ġtour":4807,"Ġluggage":4808,"Ġhen":4809,"enry":4810,"Ġyucky":4811,"Ġweight":4812,"Ġscore":4813,"ĠEventually":4814,"ĠChe":4815,"Ġcub":4816,"ĠPenny":4817,"Ġclapping":4818,"Ġeasily":4819,"Ġsparkled":4820,"Before":4821,"Ġsplashing":4822,"Ġsprayed":4823,"Daddy":4824,"Surpr":4825,"Ġsir":4826,"arnt":4827,"ĠHelp":4828,"Ġlearnt":4829,"Ġchecked":4830,"Ġfollows":4831,"Ġsteel":4832,"ittens":4833,"Ġlemonade":4834,"Ġignored":4835,"Ġwhisper":4836,"Ġdestroyed":4837,"Ġracing":4838,"looking":4839,"Mimi":4840,"hood":4841,"Ġwigg":4842,"Ġfurn":4843,"iture":4844,"ari":4845,"ĠSusie":4846,"riage":4847,"Ġupstairs":4848,"Ġseco":4849,"ecting":4850,"Ġfro":4851,"Ġspr":4852,"ucked":4853,"Ġchirp":4854,"Ġburied":4855,"ĠWhenever":4856,"ĠOlive":4857,"anges":4858,"Ġcheek":4859,"Ġworms":4860,"Ġvanished":4861,"Ġselling":4862,"Ġscattered":4863,"Ġpermit":4864,"Ġtremble":4865,"Ġfurniture":4866,"Ġsecond":4867,"Welcome":4868,"iki":4869,"Ġcree":4870,"ĠIs":4871,"ents":4872,"Ġjail":4873,"Ġreef":4874,"uct":4875,"Ġvroom":4876,"Ġsorting":4877,"Ġbetwe":4878,"Ġbadly":4879,"Ġwhistled":4880,"Ġstreng":4881,"Ġjogged":4882,"Ġentered":4883,"ĠSnowy":4884,"Ġdemand":4885,"Ġcreek":4886,"Ġbetween":4887,"Ġing":4888,"Ġwre":4889,"Ġlec":4890,"ides":4891,"Ġthumb":4892,"Ġrush":4893,"Ġexcla":4894,"Ġpaid":4895,"Ġquite":4896,"Ġhopes":4897,"redient":4898,"Ġcounter":4899,"Ġmarble":4900,"Ġpoints":4901,"Ġbricks":4902,"Ġsupply":4903,"ĠFroggy":4904,"Ġmassage":4905,"Ġstyle":4906,"Ġclaws":4907,"Ġingredient":4908,"Ġlecture":4909,"Ġexclaimed":4910,"Ġbother":4911,"Ġport":4912,"ĠSqueaky":4913,"Ġrow":4914,"Ġgrant":4915,"Ġclimbs":4916,"Ġhurting":4917,"ĠPr":4918,"izes":4919,"Ġcutting":4920,"Ġpetals":4921,"Ġseats":4922,"Ġneighbour":4923,"Ġscratch":4924,"Ġbreathe":4925,"Surprise":4926,"Ġstrength":4927,"ges":4928,"Ġtug":4929,"ĠSm":4930,"ĠSpeedy":4931,"ĠMittens":4932,"These":4933,"Ġallow":4934,"Ġputting":4935,"Ġcakes":4936,"Ġbears":4937,"Ġraining":4938,"ĠWho":4939,"Ġmarriage":4940,"Ġshopkeeper":4941,"Alice":4942,"ĠâĢĵ":4943,"Ġmenu":4944,"Ġfurt":4945,"Ġwaving":4946,"resses":4947,"Ġheel":4948,"ĠLola":4949,"ĠAlex":4950,"Ġstarting":4951,"Ġagre":4952,"Ġsnail":4953,"Ġworks":4954,"Ġforgotten":4955,"Ġprinter":4956,"Ġwags":4957,"Ġpigs":4958,"ĠGrace":4959,"Ġexplored":4960,"Ġadmired":4961,"Ġingredients":4962,"Because":4963,"right":4964,"Ġhon":4965,"Ġdaisy":4966,"Ġwashing":4967,"Ġplates":4968,"Ġsoc":4969,"Ġscoop":4970,"ecially":4971,"Ġdifference":4972,"ĠFinn":4973,"Ġfallen":4974,"Ġshined":4975,"Ġsailing":4976,"Ġjogging":4977,"Ġapart":4978,"Ġbalan":4979,"Ġeagerly":4980,"Ġdrops":4981,"Grandma":4982,"Ġobserve":4983,"Ġintroduce":4984,"Ġwreck":4985,"Ġfurther":4986,"Ġtuna":4987,"Ġduring":4988,"Ġpup":4989,"atched":4990,"ĠMaggie":4991,"Ġblood":4992,"thank":4993,"Ġfloated":4994,"Ġacted":4995,"specially":4996,"Ġstrike":4997,"ĠSharing":4998,"Ġsoccer":4999,"Ġtong":5000,"ĠTilly":5001,"reat":5002,"eration":5003,"Ġplays":5004,"Ġrul":5005,"Ġespecially":5006,"icer":5007,"Ġworth":5008,"Ġflapped":5009,"Ġhighest":5010,"Ġbuzz":5011,"Ġbeauty":5012,"ĠRemember":5013,"Ġmoves":5014,"Ġplanted":5015,"Ġwarning":5016,"Ġhorses":5017,"ĠNana":5018,"Ġfolded":5019,"Ġwandered":5020,"Ġyawn":5021,"Ġstudied":5022,"Ġincrease":5023,"..":5024,"Bl":5025,"Bella":5026,"shed":5027,"uesday":5028,"ĠTuesday":5029,"ĠLizzy":5030,"Ġoh":5031,"Ġreaches":5032,"quake":5033,"Ġwatered":5034,"ĠEverything":5035,"Ġfamil":5036,"ĠKiki":5037,"reeze":5038,"Ġconf":5039,"Ġshouting":5040,"quest":5041,"Ġkingdom":5042,"Ġgiven":5043,"Ġpresents":5044,"Ġexamine":5045,"Ġurge":5046,"ĠOwl":5047,"Ella":5048,"Fred":5049,"bor":5050,"iately":5051,"men":5052,"Ġbak":5053,"ĠSee":5054,"unately":5055,"Ġsoak":5056,"raged":5057,"Ġbrings":5058,"Ġslapped":5059,"Ġsorts":5060,"Ġsnapped":5061,"Ġtwisted":5062,"Ġdressed":5063,"Ġlands":5064,"Ġquietly":5065,"Ġgifts":5066,"ĠCharlie":5067,"Ġelephants":5068,"Ġsolved":5069,"Ġharbor":5070,"Ġearthquake":5071,"Ġuniversity":5072,"mediately":5073,"ĠCoco":5074,"Ġscolded":5075,"Leo":5076,"Ġpur":5077,"Ġinst":5078,"Ġhadn":5079,"ĠMilly":5080,"Ġrequest":5081,"ĠDave":5082,"Ġsnugg":5083,"Ġhearts":5084,"Ġcrash":5085,"Ġzigzag":5086,"Ġzero":5087,"Ġsits":5088,"omeday":5089,"Ġcurled":5090,"Ġexperience":5091,"Ġtongue":5092,"ester":5093,"pted":5094,"sed":5095,"Ġmister":5096,"isses":5097,"ĠLe":5098,"Ġwest":5099,"Ġkisses":5100,"Ġoperation":5101,"Ġoranges":5102,"Ġcomf":5103,"ĠKate":5104,"Ġimage":5105,"Ġtrave":5106,"Ġplanned":5107,"Ġsliding":5108,"ĠBubbles":5109,"Ġwisdom":5110,"Everyone":5111,"Ġmemory":5112,"Emma":5113,"esterday":5114,"do":5115,"eath":5116,"rise":5117,"Ġtide":5118,"Ġsizes":5119,"Ġsomeday":5120,"Ġlicks":5121,"Ġworse":5122,"Ġprett":5123,"Ġpaused":5124,"ĠGood":5125,"ĠFinny":5126,"Ġfields":5127,"ipping":5128,"Ġattached":5129,"Ġbouncy":5130,"Ġstuffed":5131,"Ġsqueezed":5132,"ĠRuby":5133,"Ġskills":5134,"Ġruler":5135,"'ve":5136,"Woof":5137,"mm":5138,"Ġsince":5139,"Ġcape":5140,"Ġmama":5141,"atie":5142,"ories":5143,"aded":5144,"Ġshot":5145,"ĠAbby":5146,"Ġrelease":5147,"Ġmanage":5148,"Ġsorted":5149,"Ġideas":5150,"Ġappear":5151,"Ġcatching":5152,"Ġpulling":5153,"Ġimagination":5154,"Ġcolours":5155,"Ġaccepted":5156,"Ġencourage":5157,"Ġsuffer":5158,"Ha":5159,"Ġbones":5160,"Ġtonight":5161,"ĠToto":5162,"Ġdried":5163,"Ġmice":5164,"ĠBop":5165,"Ġnews":5166,"Ġpearl":5167,"Ġpeaches":5168,"Ġimmediately":5169,"ĠRock":5170,"Ġattention":5171,"Ġwelcomed":5172,"Ġblankets":5173,"Today":5174,"Ġzookeeper":5175,"Ġtwirled":5176,"Ġmeasured":5177,"With":5178,"house":5179,"ippy":5180,"yth":5181,"Ġtucked":5182,"ĠSky":5183,"sters":5184,"ĠBee":5185,"ĠMillie":5186,"indy":5187,"Ġleather":5188,"Ġspike":5189,"Ġsunrise":5190,"Ġcalls":5191,"ĠPip":5192,"ction":5193,"Ġrabbits":5194,"ĠRos":5195,"ĠGeorge":5196,"Ġclosely":5197,"Ġwagging":5198,"Ġwhistling":5199,"Ġcelebrated":5200,"Ġmelted":5201,"ĠBefore":5202,"Ġsettled":5203,"Ġgrowled":5204,"Ġpeanuts":5205,"Ġseason":5206,"Remy":5207,"cery":5208,"Ġsi":5209,"Ġble":5210,"Ġdresses":5211,"ored":5212,"etch":5213,"ĠHo":5214,"ĠMo":5215,"Ġdownstairs":5216,"Ġglo":5217,"Ġquack":5218,"ips":5219,"Ġremained":5220,"Ġours":5221,"Ġtastes":5222,"Ġfireman":5223,"Ġwinning":5224,"ups":5225,"Ġmarried":5226,"ĠZara":5227,"Ġstealing":5228,"Ġdisagreed":5229,"Ġreceive":5230,"Ġrecognize":5231,"Ġgrocery":5232,"rank":5233,"walk":5234,"Ġbang":5235,"Ġtore":5236,"Ġtoes":5237,"Ġpalm":5238,"ising":5239,"ĠSund":5240,"ĠHope":5241,"Ġinf":5242,"Ġshed":5243,"Ġsoaked":5244,"Ġtremb":5245,"ĠWally":5246,"Ġstro":5247,"ĠPat":5248,"Ġzipped":5249,"Ġwooden":5250,"Ġemer":5251,"Ġunderstanding":5252,"Ġsidewalk":5253,"fortunately":5254,"Ġeasier":5255,"Ġstirring":5256,"Ġsurround":5257,"Ġsafari":5258,"Ġpunished":5259,"ĠClara":5260,"Ġmemories":5261,"Ġlips":5262,"ĠSteve":5263,"Blue":5264,"Ġsnuggled":5265,"Ġgloves":5266,"ĠSunday":5267,"Bird":5268,"ding":5269,"Ġisn":5270,"icing":5271,"Ġbackpack":5272,"Ġseeing":5273,"Ġrang":5274,"ddy":5275,"icky":5276,"ĠRed":5277,"Ġbreaking":5278,"Ġsnowball":5279,"Ġhits":5280,"Ġbaked":5281,"Ġstraight":5282,"Ġpotatoes":5283,"Ġcollection":5284,"Ġcreatures":5285,"ĠFox":5286,"Ġencouraged":5287,"Ġuniverse":5288,"ĠDanny":5289,"ythm":5290,"Ok":5291,"Peter":5292,"ien":5293,"rr":5294,"Ġlung":5295,"ĠHenry":5296,"ĠAva":5297,"ops":5298,"ĠJess":5299,"Ġflap":5300,"Ġgrin":5301,"Ġoffer":5302,"ĠRay":5303,"Ġfloating":5304,"Ġraised":5305,"Ġringing":5306,"Ġacorns":5307,"Ġpirates":5308,"Ġgazed":5309,"Ġpedal":5310,"ĠSuzy":5311,"ĠSmith":5312,"Ġtrembling":5313,"Lisa":5314,"bles":5315,"eep":5316,"sing":5317,"Ġwob":5318,"Ġbab":5319,"ites":5320,"Ġpad":5321,"isdom":5322,"Ġhers":5323,"ĠBaby":5324,"chie":5325,"Ġspit":5326,"Ġalright":5327,"Ġbrus":5328,"Ġflat":5329,"aped":5330,"Ġpebbles":5331,"ĠEach":5332,"Ġshouldn":5333,"Ġwaits":5334,"Ġkites":5335,"Ġshopping":5336,"Ġfiref":5337,"Ġbites":5338,"Ġlandsc":5339,"Ġmuscles":5340,"Ġcrawling":5341,"Ġkicking":5342,"Ġrelaxed":5343,"Ġunlocked":5344,"Ġfireworks":5345,"Ġinclude":5346,"Ġbabies":5347,"Would":5348,"Ġsimp":5349,"Ġdared":5350,"orted":5351,"Ġweb":5352,"ĠMandy":5353,"icorn":5354,"Ġunicorn":5355,"Ġwatches":5356,"Ġappro":5357,"Ġbrain":5358,"ĠZigzag":5359,"igging":5360,"ĠRobby":5361,"ĠFollow":5362,"Ġfamilies":5363,"Ġbleed":5364,"kins":5365,"ther":5366,"Ġbreeze":5367,"Ġdigging":5368,"ids":5369,"ĠSun":5370,"ety":5371,"allen":5372,"Ġkitty":5373,"Ġgirls":5374,"Ġexit":5375,"ĠJames":5376,"Ġchallen":5377,"Ġopin":5378,"Momo":5379,"Ġkeeps":5380,"Ġbeds":5381,"Ġdrinking":5382,"Ġresting":5383,"Ġtallest":5384,"Ġmatched":5385,"Ġmouths":5386,"Ġvisited":5387,"Ġpetted":5388,"Ġchewing":5389,"Ġsafety":5390,"Ġshadows":5391,"Ġsneak":5392,"Ġkneeled":5393,"Ġinstr":5394,"ĠRosie":5395,"ler":5396,"uzz":5397,"Ġvel":5398,"rec":5399,"Ġlined":5400,"ĠThese":5401,"ishing":5402,"Ġnone":5403,"ĠSlow":5404,"Ġplaytime":5405,"Ġstitch":5406,"Ġweighed":5407,"ĠMel":5408,"umes":5409,"elle":5410,"Ġlaid":5411,"Ġmuddy":5412,"ishy":5413,"Ġvet":5414,"Ġunderground":5415,"ĠKing":5416,"Ġamazement":5417,"ĠZoe":5418,"Ġpiles":5419,"Ġserved":5420,"Ġstudying":5421,"Ġordered":5422,"Ġsilence":5423,"Ġweeping":5424,"Ġdisagree":5425,"ĠMaria":5426,"Ġcartoons":5427,"Ġvelvet":5428,"!'":5429,"Tr":5430,"Ġnapping":5431,"Ġgust":5432,"oral":5433,"ĠLucky":5434,"Ġlick":5435,"!\",":5436,"Ġtwink":5437,"Ġbye":5438,"Ġnowhere":5439,"Ġapprec":5440,"avid":5441,"Ġwinner":5442,"Ġsetting":5443,"Ġmixing":5444,"Ġsigns":5445,"Ġroads":5446,"Ġtreasures":5447,"Ġcrunch":5448,"Ġspoons":5449,"ĠNot":5450,"Ġvanish":5451,"ĠSomething":5452,"Ġcostumes":5453,"Ġrepeated":5454,"Ġroots":5455,"Ġlandscape":5456,"Ġappreci":5457,".'":5458,"Yum":5459,"aved":5460,"coon":5461,"oved":5462,"rs":5463,"ĠQu":5464,"Ġsip":5465,"Ġsix":5466,"ĠTony":5467,"Ġhappiest":5468,"ĠLater":5469,"ĠBree":5470,"Ġjazz":5471,"ĠWisdom":5472,"Ġstrang":5473,"Thanks":5474,"izing":5475,"Ġimportance":5476,"Ġvoices":5477,"Bobby":5478,"Ġsisters":5479,"Johnny":5480,"Ġpets":5481,"Ġperfectly":5482,"Ġpinched":5483,"Ġdecorated":5484,"Ġdecorations":5485,"Ġsausages":5486,"Ġrhythm":5487,"ĠBouncy":5488,"Ġurged":5489,"Ġemergen":5490,"Sp":5491,"Ġwink":5492,"ĠTed":5493,"Ġwaist":5494,"Ġlily":5495,"Ġdire":5496,"Ġpra":5497,"ĠHarry":5498,"umble":5499,"Ġfash":5500,"Ġlets":5501,"Ġclearing":5502,"oys":5503,"Ġdraws":5504,"ĠOut":5505,"Ġresult":5506,"ĠPeanut":5507,"Ġguessed":5508,"Ġknights":5509,"Ġpatterns":5510,"Ġprepared":5511,"Ġmentioned":5512,"Ġagreement":5513,"Ġinfant":5514,"Ġfashion":5515,"Dog":5516,"Happy":5517,"iers":5518,"hello":5519,"oming":5520,"ena":5521,"irts":5522,"Ġthrill":5523,"Ġbeard":5524,"ĠLiz":5525,"ĠBoth":5526,"Ġknown":5527,"Ġnoon":5528,"ssible":5529,"ĠFrank":5530,"isten":5531,"plash":5532,"Ġturning":5533,"Ġourselves":5534,"Sammy":5535,"Ġmoments":5536,"Ġphot":5537,"Ġmarks":5538,"Ġeagle":5539,"Ġhurried":5540,"Ġescaped":5541,"Ġadmir":5542,"Ġscru":5543,"Ġpoems":5544,"Ġwaffles":5545,"Ġsprink":5546,"Ġcrunchy":5547,"Ġstrangers":5548,"Jen":5549,"Moral":5550,"Sophie":5551,"please":5552,"zen":5553,"Ġfetch":5554,"ities":5555,"Ġlimes":5556,"Ġgoals":5557,"ĠWatch":5558,"Ġbrid":5559,"Ġexpected":5560,"antly":5561,"Ġpeel":5562,"ĠCar":5563,"Ġgran":5564,"Ġbravely":5565,"Ġcrashed":5566,"Ġbehaved":5567,"Ġripped":5568,"Ġforgi":5569,"Ġruin":5570,"ship":5571,"Ġbowed":5572,"Ġpillows":5573,"Ġsoldiers":5574,"Ġlogs":5575,"Ġdisturbed":5576,"Ġspending":5577,"Ġcuddled":5578,"Emily":5579,"Ġapologized":5580,"Ġfrozen":5581,"ĠPrin":5582,"Ġgrinned":5583,"Cat":5584,"ded":5585,"ived":5586,"tory":5587,"Ġlines":5588,"ishes":5589,"Ġgained":5590,"Ġhistory":5591,"vest":5592,"Ġknelt":5593,"ĠDid":5594,"uddles":5595,"Ġdads":5596,"ĠCuddles":5597,"acob":5598,"Ġguy":5599,"ĠJoey":5600,"Ġbeneath":5601,"Ġcollecting":5602,"Ġmatching":5603,"Ġfishing":5604,"Ġstruggle":5605,"Ġemergency":5606,"Ġphotos":5607,"Watch":5608,"ud":5609,"Ġtext":5610,"Ġpies":5611,"omas":5612,"Ġhes":5613,"arth":5614,"ĠHop":5615,"Ġitem":5616,"Ġbeat":5617,"choo":5618,"Ġsore":5619,"Ġsoared":5620,"ĠIts":5621,"Ġmeow":5622,"Ġskipping":5623,"Ġslice":5624,"ctly":5625,"Ġtrapped":5626,"Ġwarmth":5627,"Ġrested":5628,"Ġwondering":5629,"Ġbuildings":5630,"Ġdragons":5631,"Ġresp":5632,"Ġdrinks":5633,"Ġanswers":5634,"Ġcollected":5635,"Goodbye":5636,"Ġburning":5637,"ĠJosh":5638,"Ġbegged":5639,"ĠRocky":5640,"Ġchallenge":5641,"Ġbridges":5642,"Ġtexture":5643,"Ducky":5644,"ales":5645,"ĠHappy":5646,"Ġthreat":5647,"Ġlied":5648,"ĠBo":5649,"ĠBug":5650,"Ġscaring":5651,"Ġago":5652,"Ġkindly":5653,"Ġcrabs":5654,"Ġscreams":5655,"Andy":5656,"Ġstamps":5657,"Ġscratched":5658,"Ġwiggle":5659,"Ġsimple":5660,"Ġapproached":5661,"Ġopinion":5662,"Ġpraised":5663,"Miss":5664,"bug":5665,"hind":5666,"ury":5667,"iti":5668,"utter":5669,"Ġeast":5670,"Ġboom":5671,"akes":5672,"ica":5673,"Ġtheirs":5674,"Ġbrushed":5675,"Ġblink":5676,"Ġteasing":5677,"ĠKatie":5678,"emb":5679,"Ġladybug":5680,"Ġwonders":5681,"Ġsparkling":5682,"Ġgathering":5683,"ĠStop":5684,"ĠStitch":5685,"Ġgolden":5686,"Ġneighborhood":5687,"Ġtwigs":5688,"Ġolives":5689,"Ġcomfy":5690,"Ġscrubbed":5691,"Eventually":5692,"lier":5693,"mare":5694,"zing":5695,"Ġtim":5696,"Ġfed":5697,"ino":5698,"Ġinvest":5699,"Ġbeamed":5700,"Ġsting":5701,"ĠLou":5702,"Ġeff":5703,"Ġann":5704,"Ġropes":5705,"ĠDare":5706,"Ġslim":5707,"Ġstrings":5708,"bbing":5709,"Ġshoulders":5710,"Ġbroom":5711,"Ġjoking":5712,"Ġrememb":5713,"Benny":5714,"Ġnightmare":5715,"Ġteaches":5716,"ĠCatty":5717,"ĠBeing":5718,"Ġcopy":5719,"Ġmuffins":5720,"Ġherbs":5721,"Really":5722,"Ġgaze":5723,"Ġgranted":5724,"Ġinvestig":5725,"Ġremembers":5726,"Mmm":5727,"Poppy":5728,"Sandy":5729,"wh":5730,"Ġawe":5731,"Ġdot":5732,"anny":5733,"ĠHenny":5734,"Ġhissed":5735,"ĠIzzy":5736,"riends":5737,"ados":5738,"ĠMay":5739,"Ġshock":5740,"uest":5741,"Ġloose":5742,"urry":5743,"Ġdoggy":5744,"Ġroaring":5745,"Ġalien":5746,"Ġeats":5747,"Ġgrey":5748,"ogo":5749,"Ġtwin":5750,"Ġhardly":5751,"ĠPinky":5752,"Ġwrites":5753,"Ġheaded":5754,"Ġswims":5755,"Ġairpl":5756,"Ġcreated":5757,"osed":5758,"Ġzooming":5759,"Ġtrips":5760,"Ġsparkle":5761,"Ġparties":5762,"Ġactiv":5763,"Ġglowed":5764,"Ġpencils":5765,"Ġmarching":5766,"ĠSomeone":5767,"Ġrefu":5768,"Ġrecorded":5769,"ĠAlways":5770,"Ġavocados":5771,"ĠMissile":5772,"Ġargued":5773,"Ġsneaked":5774,"Ġreceived":5775,"Ġpedals":5776,"ĠSparky":5777,"Ġcubes":5778,"Ġbrushes":5779,"Ġthrilled":5780,"Ġslimy":5781,"Ġinvestigate":5782,"Un":5783,"ah":5784,"iam":5785,"mother":5786,"ux":5787,"uke":5788,"Ġtugged":5789,"Ġwed":5790,"Ġfara":5791,"ĠTw":5792,"ĠTiti":5793,"Ġcrow":5794,"Ġnicer":5795,"Ġguest":5796,"ĠSqu":5797,"ĠSplash":5798,"Ġinch":5799,"ppers":5800,"Ġyouth":5801,"allow":5802,"elvet":5803,"Ġloving":5804,"Ġarea":5805,"ulie":5806,"ĠFirst":5807,"Ġdecides":5808,"ĠCindy":5809,"Ġmaster":5810,"Ġsticking":5811,"Ġremote":5812,"Ġremoved":5813,"Ġkeeper":5814,"ĠDodo":5815,"Ġsweeties":5816,"Ġsteep":5817,"Ġpots":5818,"Ġmarbles":5819,"Ġwears":5820,"Ġhealed":5821,"Ġscreaming":5822,"Ġjewels":5823,"Ġradishes":5824,"ĠAnnie":5825,"Ġcheering":5826,"Ġsupposed":5827,"Ġdestination":5828,"Ġleader":5829,"Ġmountains":5830,"Ġstretching":5831,"Ġmelting":5832,"Ġstudents":5833,"ĠâĢĺ":5834,"Ġchirped":5835,"Ġbalancing":5836,"Ġtraveled":5837,"Ġeffort":5838,"uxury":5839,"Ġfaraway":5840,"Cl":5841,"James":5842,"Ollie":5843,"Time":5844,"loe":5845,"ĠYes":5846,"hee":5847,"Ġhitting":5848,"Ġcough":5849,"Ġhated":5850,"ĠSad":5851,"ĠMon":5852,"ĠMoon":5853,"Ġprop":5854,"Ġsled":5855,"ĠCra":5856,"ission":5857,"Ġyelling":5858,"âĢĿ.":5859,"Ġtricked":5860,"Ġrealize":5861,"Ġmonsters":5862,"Ġowned":5863,"Ġsitu":5864,"osity":5865,"Ġpolished":5866,"Ġsnakes":5867,"Ġbuckets":5868,"Ġdeser":5869,"Ġpraying":5870,"Ġclaps":5871,"Ġstripes":5872,"Ġdelivered":5873,"Shh":5874,"Ġrevealed":5875,"True":5876,"Boo":5877,"Ex":5878,"boo":5879,"jam":5880,"Ġ1":5881,"ĠOnce":5882,"ĠTuna":5883,"Ġluxury":5884,"Ġcrew":5885,"Ġbeside":5886,"ĠBoo":5887,"ĠAn":5888,"Ġseag":5889,"Ġgiraff":5890,"Ġfrost":5891,"Ġmane":5892,"Ġfaced":5893,"ĠJacob":5894,"Ġtalent":5895,"Ġparked":5896,"Ġstaying":5897,"Ġopening":5898,"Ġwherever":5899,"Ġcuts":5900,"avi":5901,"Ġcontinue":5902,"Ġearlier":5903,"Ġsecrets":5904,"ĠChicky":5905,"Ġseems":5906,"Ġfears":5907,"Ġsafer":5908,"aws":5909,"Ġtickle":5910,"Ġcomplaining":5911,"Ġprovided":5912,"Ġpermission":5913,"Ġmeasuring":5914,"ĠVelvet":5915,"Ġbakery":5916,"Ġseagull":5917,"Ġgiraffes":5918,"'.":5919,"Ro":5920,"Rex":5921,"Rob":5922,"cus":5923,"ha":5924,"mies":5925,"ues":5926,"Ġbare":5927,"int":5928,"isty":5929,"esome":5930,"Ġrele":5931,"ifi":5932,"usty":5933,"ĠDuck":5934,"ĠDavid":5935,"ĠEarth":5936,"Ġwindy":5937,"Ġtails":5938,"Ġdarker":5939,"Ġrule":5940,"Ġtouching":5941,"Ġpaints":5942,"anging":5943,"Ġacting":5944,"Ġactions":5945,"Ġactually":5946,"Ġpans":5947,"Ġcandies":5948,"Ġdiscovery":5949,"Ġfeeding":5950,"Ġheroes":5951,"Ġhorns":5952,"Ġshooting":5953,"Ġsweat":5954,"Meow":5955,"Ġmagnets":5956,"Ġdusty":5957,"Ġstruggled":5958,"Ġawesome":5959,"Ġpupil":5960,"Ġbleeding":5961,"Ġadmiring":5962,"Ġrefuse":5963,"Ġproper":5964,"Jo":5965,"aster":5966,"dies":5967,"iar":5968,"ls":5969,"ners":5970,"pie":5971,"Ġwiz":5972,"Ġtoss":5973,"ouch":5974,"Ġdied":5975,"Ġwasted":5976,"ora":5977,"Ġonwards":5978,"Ġliqu":5979,"Ġwanting":5980,"ĠBye":5981,"Ġobe":5982,"ĠWater":5983,"uckily":5984,"ĠDino":5985,"Ġvict":5986,"anta":5987,"Ġfoods":5988,"Ġtwisty":5989,"Ġglasses":5990,"ĠKids":5991,"Ġbedtime":5992,"ĠRe":5993,"Ġrestored":5994,"Ġcontain":5995,"Ġcontest":5996,"Ġcreation":5997,"Ġcompany":5998,"Ġshrug":5999,"Ġpatiently":6000,"Stay":6001,"Ġvalued":6002,"Ġteamwork":6003,"Ġspraying":6004,"Ġdinosaurs":6005,"Ġflags":6006,"Ġneighbors":6007,"Ġspaceship":6008,"Ġtune":6009,"Ġhelmets":6010,"Ġweeks":6011,"Ġsneaky":6012,"Ġstruggling":6013,"Ġawake":6014,"ĠRover":6015,"Ġneighbourhood":6016,"Ġprettiest":6017,"Ġsurrounded":6018,"Ġhesit":6019,"Ġtimer":6020,"Ġwedding":6021,"Ġliquid":6022,"Ew":6023,"George":6024,"Tiny":6025,"band":6026,"go":6027,"ĠX":6028,"Ġachie":6029,"Ġsings":6030,"ĠSanta":6031,"lee":6032,"amie":6033,"rian":6034,"Ġstare":6035,"ĠLike":6036,"ads":6037,"enty":6038,"Ġcatches":6039,"Ġpride":6040,"ashed":6041,"Ġpoking":6042,"Ġchef":6043,"Ġglitter":6044,"ĠKay":6045,"ĠKeep":6046,"Ġquacked":6047,"Ġworker":6048,"Ġpaintings":6049,"Ġcrept":6050,"Ġpolishing":6051,"screen":6052,"ĠSpring":6053,"Ġpaying":6054,"compl":6055,"Ġbloomed":6056,"Ġproject":6057,"Ġloaded":6058,"Ġscooters":6059,"Ġsights":6060,"Ġsucceeded":6061,"Ġinsist":6062,"Ġrecognized":6063,"Ġsiren":6064,"ĠSlowly":6065,"Ġappreciate":6066,"ĠQuick":6067,"Ġfrosting":6068,"Ġobey":6069,"During":6070,"Pete":6071,"Paul":6072,"Remember":6073,"nie":6074,"Ġhi":6075,"ays":6076,"Ġmes":6077,"ofia":6078,"Ġbeads":6079,"ĠLenny":6080,"ĠLuke":6081,"Ġeight":6082,"ĠAlly":6083,"Ġseven":6084,"ulp":6085,"Ġfasc":6086,"ĠFifi":6087,"ĠJessie":6088,"Ġflav":6089,"Ġflutter":6090,"ĠDr":6091,"Ġpeppers":6092,"Ġtraded":6093,"Whiskers":6094,"Ġcomm":6095,"ĠEveryday":6096,"uffin":6097,"Ġcones":6098,"Ġaccompl":6099,"Ġpatience":6100,"Ġcomple":6101,"Ġprec":6102,"ĠBlink":6103,"Ġbringing":6104,"Ġdiving":6105,"Ġsplashes":6106,"Ġcelebration":6107,"Ġblows":6108,"Ġblooming":6109,"Ġscattering":6110,"Ġcushions":6111,"Ġthud":6112,"Ġpenguins":6113,"Ġribbons":6114,"Ġpears":6115,"Ġmittens":6116,"Mrs":6117,"Ġnails":6118,"Ġrescued":6119,"Ġpassports":6120,"ĠFrog":6121,"Ġsighs":6122,"uctions":6123,"Ġdemanded":6124,"Ġhonk":6125,"Ġscooped":6126,"Ġbalanced":6127,"...\"":6128,"Ġinstructions":6129,"Ġguys":6130,"Ġairplane":6131,"Ġfascin":6132,"Achoo":6133,"Bad":6134,"Fo":6135,"First":6136,"Have":6137,"Jake":6138,"Luna":6139,"Our":6140,"Uh":6141,"Zoomy":6142,"big":6143,"die":6144,"lict":6145,"zie":6146,"Ġboo":6147,"Ġtodd":6148,"Ġpause":6149,"lets":6150,"iggy":6151,"ĠMuffin":6152,"Ġoat":6153,"Ġsadness":6154,"ults":6155,"Ġstarfish":6156,"Ġscales":6157,"Ġbackward":6158,"Ġgoodnight":6159,"Ġhomework":6160,"ĠFriends":6161,"Ġlearns":6162,"Ġunf":6163,"Ġusual":6164,"Ġuntie":6165,"Ġofficer":6166,"ĠGogo":6167,"Ġdrives":6168,"Ġexplorers":6169,"Ġmission":6170,"Ġreluct":6171,"Ġvisiting":6172,"Ġvillag":6173,"Ġlaying":6174,"Ġorganizing":6175,"Ġprotected":6176,"Ġprotecting":6177,"ĠBehind":6178,"Ġrefre":6179,"Ġexamined":6180,"Ġreminder":6181,"Ġapologize":6182,"Ġapplauded":6183,"Ġfroze":6184,"Ġconflict":6185,"Ġbaker":6186,"Ġpurred":6187,"ĠLeave":6188,"Ġwizard":6189,"Somet":6190,"Tweet":6191,"aa":6192,"actly":6193,"bl":6194,"jo":6195,"rance":6196,"ĠQ":6197,"Ġwound":6198,"Ġdipped":6199,"Ġcause":6200,"ern":6201,"arter":6202,"iders":6203,"ords":6204,"Ġyesterday":6205,"step":6206,"ĠLove":6207,"ĠMoo":6208,"Ġsmarter":6209,"Ġhelpers":6210,"ĠAm":6211,"Ġsmallest":6212,"Ġwhatever":6213,"Ġchanging":6214,"ĠElephant":6215,"Ġstruck":6216,"ĠThomas":6217,"bbled":6218,"Ġsmiley":6219,"Ġcracked":6220,"ĠGr":6221,"ĠGet":6222,"ĠGreen":6223,"Ġwins":6224,"Ġdragged":6225,"Ġmuscle":6226,"ĠChloe":6227,"ĠJenna":6228,"Ġguns":6229,"ĠBeep":6230,"Ġleading":6231,"ĠPepper":6232,"Ġrecording":6233,"Ġshivered":6234,"Ġfigures":6235,"Ġrides":6236,"Ġspells":6237,"ĠPippa":6238,"Ġplanets":6239,"ĠYesterday":6240,"Ġpastels":6241,"Ġprettier":6242,"Ġspikes":6243,"ĠHopper":6244,"ĠJessica":6245,"Ġfirefight":6246,"Ġbarely":6247,"Ġreleased":6248,"Ġvictory":6249,"bigail":6250,"Ġtoddler":6251,"Ġreluctantly":6252,"An":6253,"Jerry":6254,"Millie":6255,"Silly":6256,"Teddy":6257,"ho":6258,"nies":6259,"Ġbank":6260,"Ġdam":6261,"Ġdie":6262,"Ġcous":6263,"ĠSure":6264,"anna":6265,"ĠHippy":6266,"Ġrings":6267,"Ġstern":6268,"Ġshirts":6269,"Ġclick":6270,"Ġbecoming":6271,"Ġexactly":6272,"Ġsunlight":6273,"Ġanytime":6274,"Ġhugging":6275,"Ġvent":6276,"Ġunited":6277,"Ġstole":6278,"ĠRabbit":6279,"Ġbehavi":6280,"ĠGir":6281,"Ġfiremen":6282,"Ġbowls":6283,"Ġrockets":6284,"Ġcovers":6285,"Ġinviting":6286,"Ste":6287,"Ġpacking":6288,"Ġdelivering":6289,"Ġreply":6290,"ĠRobert":6291,"ĠBetsy":6292,"Grandpa":6293,"ĠMarie":6294,"Ġwarnings":6295,"ĠMeg":6296,"ĠRollie":6297,"ĠChew":6298,"Ġbuzzing":6299,"Ġsprinkles":6300,"ĠPrincess":6301,"Ġannoy":6302,"ĠSquirrel":6303,"jamas":6304,"Ġprecious":6305,"Ah":6306,"Milly":6307,"Oops":6308,"Su":6309,"bly":6310,"eah":6311,"fied":6312,"rink":6313,"ten":6314,"uly":6315,"Ġsense":6316,"Ġwid":6317,"ĠTop":6318,"ĠTurtle":6319,"Ġpins":6320,"iding":6321,"irm":6322,"ĠHor":6323,"ĠBy":6324,"ĠBecause":6325,"Ġweren":6326,"ueen":6327,"Ġfault":6328,"Ġcocoon":6329,"ĠJilly":6330,"ĠJoy":6331,"Ġchips":6332,"Ġwhose":6333,"Ġgotten":6334,"ĠDara":6335,"Ġpossible":6336,"Ġvines":6337,"Ġpeas":6338,"Ġpeered":6339,"ĠPo":6340,"Ġpajamas":6341,"Ġjoked":6342,"Ġargu":6343,"Ġarrive":6344,"Ġsparkles":6345,"ĠStar":6346,"Ġprincesses":6347,"Ġwraps":6348,"Ġmasks":6349,"Ġmisses":6350,"Ġrefle":6351,"Ġsending":6352,"Ġcomplained":6353,"Ġquarreling":6354,"ĠRobo":6355,"Ġtickets":6356,"Ġseparated":6357,"Ġcuddle":6358,"Ġsports":6359,"Ġintroduc":6360,"ĠUnfortunately":6361,"Ġwiggled":6362,"Ġsnowballs":6363,"ĠBuggy":6364,"Ġactivities":6365,"Unfortunately":6366,"Ġsituation":6367,"Ġvillagers":6368,"ĠQueen":6369,"Ġarguing":6370,"Buzz":6371,"Dave":6372,"Lilly":6373,"Mar":6374,"Mandy":6375,"Or":6376,"Ru":6377,"bric":6378,"dam":6379,"ĠĠĊ":6380,"Ġsides":6381,"Ġhus":6382,"Ġfirm":6383,"ĠTara":6384,"rey":6385,"Ġpout":6386,"Ġgri":6387,"atches":6388,"anie":6389,"Ġthro":6390,"Ġplenty":6391,"Ġbelly":6392,"ĠLena":6393,"ĠBarry":6394,"Ġspins":6395,"Ġspiders":6396,"Ġfabric":6397,"ĠWant":6398,"ĠFishy":6399,"Ġsomebody":6400,"Ġgreet":6401,"ĠEn":6402,"Ġtruly":6403,"Ġteased":6404,"Ġsnatched":6405,"Ġforehead":6406,"Ġfarther":6407,"Ġmailed":6408,"Ġbrand":6409,"Ġtractor":6410,"Ġcaused":6411,"Ġwoof":6412,"Ġyells":6413,"Ġcuriosity":6414,"Ġblocking":6415,"Ġperched":6416,"Ġbiting":6417,"Ġnaps":6418,"ĠZipper":6419,"Ġstartled":6420,"Ġpockets":6421,"Ġbells":6422,"Ġrainbows":6423,"Ġpaths":6424,"Ġbounces":6425,"Ġkicks":6426,"ĠStay":6427,"Ġscarves":6428,"Ġgroups":6429,"Ġmotion":6430,"Ġdiscovering":6431,"Ġtricky":6432,"Ġpowers":6433,"ĠFoxy":6434,"Ġgrowling":6435,"Ġitchy":6436,"Ġknocks":6437,"ĠSnowman":6438,"Ġimproved":6439,"Ġsuperheroes":6440,"cuse":6441,"Ġcuddly":6442,"Ġtwirl":6443,"Ġincreased":6444,"Ġchoices":6445,"Ġgrandmother":6446,"ĠChess":6447,"Ġchirping":6448,"Ġrequested":6449,"Ġtravell":6450,"ĠHoot":6451,"Ġforgiving":6452,"Ġitems":6453,"Ġproperly":6454,"Ġcompleted":6455,"Ġfascinated":6456,"ĠGiraffe":6457,"Ġwidened":6458,"Hold":6459,"Listen":6460,"Pe":6461,"Yeah":6462,"eff":6463,"vin":6464,"Ġbur":6465,"Ġfut":6466,"ining":6467,"Ġdar":6468,"Ġnine":6469,"ĠSay":6470,"anes":6471,"ĠHolly":6472,"seek":6473,"Ġsoaring":6474,"Ġsobbed":6475,"Ġneither":6476,"ĠWoo":6477,"Ġworries":6478,"Ġswit":6479,"Ġswoop":6480,"Ġrocking":6481,"inkle":6482,"Ġhandful":6483,"Ġusually":6484,"aker":6485,"ĠPut":6486,"ĠPatch":6487,"Ġlistens":6488,"though":6489,"Ġbehaving":6490,"Ġrip":6491,"Ġpromises":6492,"ĠOak":6493,"Ġreaching":6494,"Ġpolar":6495,"Ġpointy":6496,"Ġstands":6497,"Ġshrinking":6498,"Ġpops":6499,"Ġcreating":6500,"Ġdived":6501,"Ġimages":6502,"Ġchases":6503,"Ġgiggling":6504,"ĠBrownie":6505,"Ġfolding":6506,"ĠTruck":6507,"Ġpoliceman":6508,"Ġtunnels":6509,"ĠShadow":6510,"Ġcurtains":6511,"Ġhallway":6512,"Ġrewarded":6513,"Ġobserved":6514,"ĠSparkle":6515,"Charlie":6516,"ĠUncle":6517,"ĠPrince":6518,"Ġhonked":6519,"Ġbuzzed":6520,"Ġdirection":6521,"Excuse":6522,"Sometimes":6523,"steps":6524,"Ġthroat":6525,"Ġfuture":6526,"==":6527,"Car":6528,"Henry":6529,"Maggie":6530,"Sunny":6531,"bie":6532,"cakes":6533,"lay":6534,"nk":6535,"tuce":6536,"yond":6537,"Ġast":6538,"eds":6539,"Ġdent":6540,"Ġcent":6541,"Ġcust":6542,"Ġsank":6543,"ido":6544,"Ġgross":6545,"Ġbeyond":6546,"une":6547,"ĠMouse":6548,"Ġbodies":6549,"Ġrepa":6550,"urried":6551,"Ġcans":6552,"Ġspong":6553,"Ġstaring":6554,"Ġscurried":6555,"Ġlap":6556,"Ġnoses":6557,"Ġeveryday":6558,"ĠFor":6559,"abella":6560,"ason":6561,"Ġchop":6562,"Ġchuck":6563,"âĢĶ":6564,"Ġunp":6565,"Ġlettuce":6566,"Ġuntied":6567,"Ġstays":6568,"ĠGina":6569,"Ġpretends":6570,"ĠOlly":6571,"Ġseesaw":6572,"Ġnests":6573,"Ġdropping":6574,"Ġgrows":6575,"Ġcontro":6576,"Ġnapkins":6577,"angled":6578,"Ġcorners":6579,"iggie":6580,"Ġinterested":6581,"Ġavo":6582,"Ġcelebrating":6583,"Ġvanilla":6584,"Ġgasp":6585,"Ġwhispers":6586,"ĠHowever":6587,"ĠBirdie":6588,"Ġbracelets":6589,"Ġmovies":6590,"Ġleaning":6591,"Ġbasement":6592,"Ġtasks":6593,"Ġcompletely":6594,"Ġgrowls":6595,"lowers":6596,"Quack":6597,"Ġsuffered":6598,"Ġagrees":6599,"Ġsibl":6600,"Ġfirefly":6601,"ĠNothing":6602,"Ġdeserve":6603,"Ġhusband":6604,"Ġcustom":6605,"Ġsponge":6606,"Ġsiblings":6607,"?'":6608,"Bu":6609,"Big":6610,"Bunny":6611,"Lola":6612,"Run":6613,"Susie":6614,"Very":6615,"Whee":6616,"eed":6617,"pite":6618,"itely":6619,"Ġmoo":6620,"Ġmerry":6621,"ĠSofia":6622,"utty":6623,"Ġyum":6624,"ĠMix":6625,"Ġlosing":6626,"Ġbackwards":6627,"Ġfact":6628,"ĠWink":6629,"Ġranger":6630,"iley":6631,"ĠJolly":6632,"ĠJulie":6633,"Those":6634,"Ġvowed":6635,"ĠEx":6636,"Ġslam":6637,"Ġhowever":6638,"ĠCow":6639,"Ġtearing":6640,"ĠPam":6641,"ĠPine":6642,"ĠPup":6643,"Ġsquishy":6644,"Ġbravery":6645,"Ġdollar":6646,"ĠWhist":6647,"Ġsinger":6648,"joyed":6649,"Ġsweets":6650,"Ġreads":6651,"ĠOur":6652,"Ġreplaced":6653,"Ġpotion":6654,"ounce":6655,"Ġpatted":6656,"Ġkeys":6657,"Ġsails":6658,"ĠNice":6659,"Ġpartic":6660,"Ġspeaking":6661,"Ġpracticing":6662,"Ġsupplies":6663,"awn":6664,"Ġwishing":6665,"Ġsquares":6666,"Ġpumpkins":6667,"Ġspreading":6668,"Ġtickled":6669,"Ġbatteries":6670,"Ġsurface":6671,"Ġpeeking":6672,"Chirpy":6673,"Ġconfident":6674,"Ġwobbly":6675,"Doggy":6676,"Ġdots":6677,"ĠTwinkle":6678,"ĠCrab":6679,"Ġaccomplish":6680,"Ġventured":6681,"ĠHorsy":6682,"Ġrepaired":6683,"Fine":6684,"Great":6685,"Le":6686,"Lulu":6687,"Mine":6688,"Pipp":6689,"Some":6690,"Yummy":6691,"cl":6692,"eal":6693,"fly":6694,"father":6695,"Ġpec":6696,"Ġni":6697,"ĠSl":6698,"ĠSorry":6699,"order":6700,"Ġplayers":6701,"Ġrisk":6702,"Ġstain":6703,"Ġstem":6704,"ĠBirthday":6705,"ĠBiggie":6706,"Ġmommies":6707,"Ġaside":6708,"Ġroses":6709,"?\",":6710,"Ġoutdo":6711,"ĠFit":6712,"Ġflames":6713,"Ġchoo":6714,"usted":6715,"Ġposter":6716,"ĠPaws":6717,"ctions":6718,"Ġsofter":6719,"Ġdeal":6720,"Ġsatis":6721,"Ġuses":6722,"Ġworkers":6723,"Ġripe":6724,"Ġsteady":6725,"Ġlighter":6726,"ĠOl":6727,"Ġrolls":6728,"Ġplanning":6729,"Ġfilling":6730,"Ġcounts":6731,"Ġsnowmen":6732,"Ġmarked":6733,"ĠNick":6734,"Ġfootsteps":6735,"Ġcalmed":6736,"Ġpouring":6737,"Ġentire":6738,"Ġentrance":6739,"ĠWithout":6740,"Ġdecorating":6741,"Ġarrows":6742,"Ġnecklaces":6743,"Ġscratches":6744,"Ġdolphins":6745,"ivi":6746,"Ġwandering":6747,"Ġcompetition":6748,"Ġwires":6749,"Ġshorts":6750,"Ġminerals":6751,"Ġstudent":6752,"Ġrotting":6753,"Ġknees":6754,"ĠSuzie":6755,"Ġsprang":6756,"Ġcomforted":6757,"Ġstroked":6758,"Ġpadd":6759,"Ġpaddle":6760,"Ġtwinkling":6761,"Spike":6762,"Ġguests":6763,"ĠMonster":6764,"Ġchefs":6765,"Ġrefreshed":6766,"Ġfirefighters":6767,"Ġreflection":6768,"Ruby":6769,"Ġgrip":6770,"ĠEnjoy":6771,"Ġdentist":6772,"Ġunpacked":6773,"Bear":6774,"Dolly":6775,"Ellie":6776,"Get":6777,"Katie":6778,"Lizzy":6779,"Luckily":6780,"Mike":6781,"Out":6782,"Sn":6783,"Take":6784,"Zoom":6785,"uri":6786,"vroom":6787,"xie":6788,"zes":6789,"Ġtiss":6790,"Ġtangled":6791,"Ġwow":6792,"Ġbunch":6793,"aye":6794,"Ġmood":6795,"ercy":6796,"Ġheav":6797,"ĠSw":6798,"ĠHur":6799,"Ġthird":6800,"rixie":6801,"Ġbeam":6802,"Ġrising":6803,"Ġstool":6804,"sty":6805,"ofty":6806,"Ġnotes":6807,"ĠBook":6808,"ĠBrian":6809,"sequ":6810,"ently":6811,"Ġshelves":6812,"ela":6813,"alph":6814,"ĠAunt":6815,"ĠAbigail":6816,"Ġopp":6817,"Ġleast":6818,"Ġexha":6819,"iles":6820,"ĠJeff":6821,"Ġflapping":6822,"Ġchat":6823,"Ġknowled":6824,"ĠDizzy":6825,"Ġwatering":6826,"Ġtramp":6827,"Ġoverjoyed":6828,"ĠPu":6829,"Ġstrongest":6830,"Ġsingle":6831,"Ġwaiter":6832,"Ġremembering":6833,"Ġconn":6834,"Ġconsequ":6835,"Ġhider":6836,"Ġsteer":6837,"Ġcloses":6838,"Ġwinked":6839,"Ġsigned":6840,"Ġpiggy":6841,"Ġelbow":6842,"ĠZee":6843,"Ġpassing":6844,"Ġpastries":6845,"brush":6846,"Ġbathing":6847,"oline":6848,"Ġtouches":6849,"Ġdesert":6850,"Ġrecorder":6851,"umbling":6852,"ĠAnne":6853,"Ġseeker":6854,"Ġsupported":6855,"ĠStella":6856,"Ġprayer":6857,"Ġdrums":6858,"Ġtowels":6859,"Ġburns":6860,"Ġrelief":6861,"Ġperformed":6862,"Ġlollipops":6863,"ĠTweetie":6864,"Ġsurfing":6865,"ĠJojo":6866,"Ġshovels":6867,"ĠYawn":6868,"Ġincluded":6869,"Annie":6870,"Ġbegin":6871,"Ġcheeks":6872,"ĠGoodbye":6873,"Ġlicking":6874,"Ġrespons":6875,"Roar":6876,"Ġflavor":6877,"Follow":6878,"Steve":6879,"Ġchuckled":6880,"Ġoutdoors":6881,"Ġknowledge":6882,"Ġtrampoline":6883,"Ġconsequence":6884,"Danny":6885,"Harry":6886,"Jump":6887,"May":6888,"Penny":6889,"Rose":6890,"ael":6891,"een":6892,"fall":6893,"no":6894,"ossible":6895,"Ġicing":6896,"Ġturt":6897,"Ġaff":6898,"Ġaimed":6899,"Ġtoaster":6900,"inny":6901,"isions":6902,"Ġsale":6903,"ĠSc":6904,"ĠSofty":6905,"Ġthorn":6906,"Ġrumble":6907,"Ġrusty":6908,"Ġstew":6909,"ĠLau":6910,"ĠBeth":6911,"ĠBelle":6912,"Ġrocked":6913,"Ġspat":6914,"Ġbru":6915,"ĠFido":6916,"ĠJones":6917,"ĠJamie":6918,"ĠJanie":6919,"Ġswords":6920,"Ġblown":6921,"Ġdecisions":6922,"romise":6923,"bert":6924,"Ġends":6925,"ĠPh":6926,"autious":6927,"ths":6928,"Ġimpossible":6929,"Ġrains":6930,"Ġdarkness":6931,"Ġtables":6932,"Ġdancers":6933,"Ġfairies":6934,"ĠOxy":6935,"Ġbars":6936,"Ġjoining":6937,"ĠZiggy":6938,"Ġbaths":6939,"Ġwhistles":6940,"ichael":6941,"Ġfits":6942,"Ġkittens":6943,"ĠNutty":6944,"Ġminded":6945,"Ġmachines":6946,"Ġprayers":6947,"Ġmatters":6948,"Ġships":6949,"Ġwipes":6950,"Ġmushrooms":6951,"Ġsqueaked":6952,"Ġsneezing":6953,"Ġadding":6954,"Ġloading":6955,"Ġornaments":6956,"Ġhumans":6957,"Ġtwirling":6958,"ĠVivi":6959,"Ġsewed":6960,"Ġsurroundings":6961,"Ġbackpacks":6962,"rrr":6963,"Ġinstrum":6964,"Ġforgiven":6965,"Ġ10":6966,"ĠReg":6967,"Ġhesitated":6968,"Ġachieve":6969,"ĠKaylee":6970,"Ġcousin":6971,"Ġintroduced":6972,"Ġdarling":6973,"Ġswooped":6974,"Ġcontrol":6975,"Ġparticular":6976,"urious":6977,"ĠHurricane":6978,"Ġexhausted":6979,"Ġconsequences":6980,"Ġturtles":6981,"Alex":6982,"Bet":6983,"Baby":6984,"Co":6985,"cie":6986,"cited":6987,"gers":6988,"hi":6989,"neath":6990,"oke":6991,"ody":6992,"sm":6993,"shing":6994,"you":6995,"ndy":6996,"ĠToys":6997,"Ġnuzz":6998,"lle":6999,"Ġgoo":7000,"Ġgee":7001,"Ġund":7002,"ces":7003,"Ġstung":7004,"Ġstumble":7005,"ĠLiam":7006,"ading":7007,"ades":7008,"ĠMam":7009,"ĠMill":7010,"ĠMild":7011,"chy":7012,"Ġneare":7013,"ters":7014,"Ġgobbled":7015,"Ġcarts":7016,"ĠWo":7017,"Ġnodd":7018,"Ġaloud":7019,"ĠFaye":7020,"ĠJu":7021,"abel":7022,"ept":7023,"Ġyourselves":7024,"Ġfever":7025,"ĠDina":7026,"Ġuns":7027,"Ġskirts":7028,"ĠThose":7029,"Ġtalents":7030,"Ġfart":7031,"ĠPink":7032,"Ġwrist":7033,"Ġheading":7034,"ĠJacky":7035,"ĠOther":7036,"Ġslowed":7037,"Ġtighter":7038,"ĠToot":7039,"Ġguide":7040,"Ġhealth":7041,"ĠJennie":7042,"Ġdoctors":7043,"Ġcrumb":7044,"Ġrobber":7045,"Ġsparks":7046,"Ġsalty":7047,"Beep":7048,"Ġforgets":7049,"Ġprick":7050,"ĠSpirit":7051,"Ġswimmer":7052,"Ġtested":7053,"Ġwakes":7054,"Ġtwisting":7055,"Ġclowns":7056,"Ġfrowning":7057,"Ġghosts":7058,"Ġerase":7059,"ĠShiver":7060,"Ġjackets":7061,"Ġgracefully":7062,"Ġforks":7063,"Ġangels":7064,"Ġdetermination":7065,"Ġbumps":7066,"Grace":7067,"Ġlending":7068,"Ġloops":7069,"Ġcurly":7070,"ĠRudy":7071,"Ġregretted":7072,"Ġgrandfather":7073,"Ġsewing":7074,"Ġdirections":7075,"alloween":7076,"ĠSadly":7077,"Ġmesmer":7078,"Ġslammed":7079,"Ġheavier":7080,"Ġgeese":7081,"Ġnodding":7082,"--":7083,"Even":7084,"Elly":7085,"For":7086,"Kim":7087,"Keep":7088,"Lina":7089,"Sad":7090,"Vroom":7091,"fit":7092,"iel":7093,"Ġsy":7094,"Ġbun":7095,"Ġbumpy":7096,"ĠTe":7097,"ĠTry":7098,"ĠTippy":7099,"reverse":7100,"Ġden":7101,"Ġcor":7102,"Ġcautious":7103,"Ġmater":7104,"ĠSe":7105,"oosh":7106,"ĠLina":7107,"Ġlies":7108,"Ġev":7109,"ĠMatch":7110,"Ġloses":7111,"Ġleap":7112,"Ġoutfit":7113,"ĠFle":7114,"ĠJon":7115,"Ġswept":7116,"Ġsunscreen":7117,"Ġfeast":7118,"Ġpos":7119,"Ġskunk":7120,"Ġamong":7121,"Ġunderneath":7122,"ĠCro":7123,"Ġsnuck":7124,"Ġtweet":7125,"Ġdonkey":7126,"Ġmagpie":7127,"Ġbadge":7128,"Ġglued":7129,"Ġdollhouse":7130,"Ġwarmer":7131,"Ġdisob":7132,"Ġhides":7133,"Ġpaintbrush":7134,"ĠZero":7135,"iversity":7136,"ĠThanks":7137,"iggles":7138,"Ġhonesty":7139,"Ġactive":7140,"Ġfleas":7141,"Ġself":7142,"Ġhopeful":7143,"ĠStarry":7144,"Ġrubs":7145,"Ġsolut":7146,"Ġmischie":7147,"Ġperforming":7148,"Ġcombed":7149,"ĠTrust":7150,"Ġfrowns":7151,"Ġvideos":7152,"Ġpleaded":7153,"Ġmodels":7154,"ronaut":7155,"Ġcobwebs":7156,"Ġinsects":7157,"Ġobjects":7158,"ĠFrosty":7159,"Ġslipping":7160,"Shrink":7161,"Ġbreathed":7162,"Ġyielded":7163,"Ġcountryside":7164,"ĠSuki":7165,"Ġrows":7166,"...":7167,"Ġstroll":7168,".'\"":7169,"Ġruining":7170,"ĠDidi":7171,"ĠSadie":7172,"Ġsweaty":7173,"Ġannoyed":7174,"Ġswitched":7175,"Ġastronaut":7176,"Ġavoid":7177,"Ġcustomer":7178,"Ġpecked":7179,"Ġtissue":7180,"Ġfarthest":7181,"Ġcrumbs":7182,"Bow":7183,"Boys":7184,"Che":7185,"Gina":7186,"Lena":7187,"Put":7188,"aure":7189,"cc":7190,"fted":7191,"rin":7192,"rup":7193,"rops":7194,"Ġtig":7195,"Ġtipped":7196,"Ġaud":7197,"Ġsway":7198,"Ġsens":7199,"Ġbacked":7200,"ĠTam":7201,"Ġcash":7202,"Ġmunch":7203,"llen":7204,"Ġhalves":7205,"ans":7206,"aned":7207,"oring":7208,"ĠHold":7209,"ĠHalloween":7210,"Ġplain":7211,"ilo":7212,"Ġrather":7213,"cept":7214,"ĠLaser":7215,"ĠListen":7216,"addie":7217,"Ġdod":7218,"ĠBall":7219,"ĠBally":7220,"ĠBaa":7221,"Ġearn":7222,"ĠMother":7223,"ĠMint":7224,"Ġshown":7225,"elia":7226,"Ġanger":7227,"ĠAdam":7228,"indrops":7229,"Ġashes":7230,"Ġocc":7231,"Ġrever":7232,"Ġreason":7233,"Ġtreehouse":7234,"Ġscra":7235,"Ġsculp":7236,"ĠWiggles":7237,"Ġage":7238,"ddie":7239,"Ġflight":7240,"Ġchara":7241,"ĠDay":7242,"Ġunw":7243,"Ġslither":7244,"ĠCandy":7245,"Ġafterwards":7246,"bbie":7247,"Ġloudest":7248,"ĠPen":7249,"ĠPercy":7250,"Ġadults":7251,"Ġrainy":7252,"Ġdef":7253,"Ġcuriously":7254,"Ġprinting":7255,"Ġache":7256,"Ġcreams":7257,"Ġslower":7258,"Ġjoins":7259,"Ġbuying":7260,"Ġplanting":7261,"Ġdragonfly":7262,"Ġraindrops":7263,"Ġfans":7264,"Ġvisitors":7265,"ĠChick":7266,"Ġmarkers":7267,"Ġzooms":7268,"Ġimagining":7269,"Ġtrusting":7270,"Ġignoring":7271,"Ġleads":7272,"Ġstuffing":7273,"ĠAlong":7274,"Ġreminds":7275,"Ġscrub":7276,"iolet":7277,"Ġsqueezing":7278,"Ġdesigned":7279,"Ġknocking":7280,"Ġblinking":7281,"Ġprevented":7282,"Ġgazing":7283,"Ġtipto":7284,"Ġincluding":7285,"ĠMegan":7286,"Ġpurr":7287,"ĠDavey":7288,"Ġspits":7289,"Ġmasterpie":7290,"Clara":7291,"Ġtalented":7292,"Ġdamage":7293,"Buzzy":7294,"ĠWhistle":7295,"Pippin":7296,"Ġresponsible":7297,"Betty":7298,"Ġunsure":7299,"Ġprickly":7300,"Ġmateri":7301,"auren":7302,"Ġtigers":7303,"Ġsculpture":7304,"Ġcharac":7305,"Ġmasterpiece":7306,"'.\"":7307,"Cindy":7308,"Dan":7309,"David":7310,"Fro":7311,"Hurry":7312,"Jazz":7313,"Julie":7314,"Kate":7315,"Pat":7316,"Pandy":7317,"Tina":7318,"Under":7319,"found":7320,"len":7321,"pit":7322,"uing":7323,"ude":7324,"wise":7325,"Ġtin":7326,"Ġtid":7327,"Ġting":7328,"Ġsill":7329,"Ġfreed":7330,"ĠTia":7331,"ĠTrixie":7332,"ition":7333,"itches":7334,"itude":7335,"Ġlower":7336,"Ġcott":7337,"Ġmaker":7338,"Ġmiles":7339,"ĠSke":7340,"endy":7341,"ira":7342,"amil":7343,"Ġplucked":7344,"Ġinsp":7345,"ĠIndy":7346,"uno":7347,"ĠBark":7348,"Ġform":7349,"ching":7350,"Ġsoaking":7351,"aled":7352,"inda":7353,"aren":7354,"ĠWake":7355,"obody":7356,"Ġeverybody":7357,"Ġflipped":7358,"Ġabil":7359,"using":7360,"Ġchamp":7361,"umph":7362,"ĠEd":7363,"ĠElle":7364,"Ġamount":7365,"Ġsurprising":7366,"ĠWeapon":7367,"Ġtwice":7368,"pecting":7369,"Ġbuses":7370,"Ġovercome":7371,"Ġcheers":7372,"Ġcolored":7373,"Ġstopping":7374,"Ġstolen":7375,"Ġadult":7376,"issa":7377,"Ġfins":7378,"ohny":7379,"Ġtalks":7380,"Ġcolder":7381,"ĠGray":7382,"Ġduckling":7383,"Ġtasting":7384,"Ġrubbing":7385,"Ġbottles":7386,"osite":7387,"!âĢĿ.":7388,"Ġbandages":7389,"ĠGracie":7390,"ĠBluey":7391,"Ġbows":7392,"Ġdrivers":7393,"ĠNear":7394,"Ġsource":7395,"Ġcaterpillars":7396,"Ġjourneys":7397,"uggles":7398,"ĠBruno":7399,"Ġwiping":7400,"Ġsolving":7401,"Ġpresses":7402,"Ġlifting":7403,"Ġtwists":7404,"Ġindeed":7405,"Ġtemper":7406,"Ġreminding":7407,"ĠUp":7408,"Ġwealth":7409,"ĠShake":7410,"Ġtires":7411,"ĠSnap":7412,"ĠSnuggles":7413,"achel":7414,"Ġpleasure":7415,"Ġsurfboard":7416,"Ġpapa":7417,"Always":7418,"Ġcamping":7419,"Ġoysters":7420,"Joey":7421,"Ġrails":7422,"ceries":7423,"Ġgroceries":7424,"Ġrecommended":7425,"Ġwobbled":7426,"Ġbrushing":7427,"Ġtwinkled":7428,"Ġtossed":7429,"Ġfluttered":7430,"Ġunfamil":7431,"Ġwounds":7432,"Ġbehaviour":7433,"Suzy":7434,"Ġfirmly":7435,"Ġtravelled":7436,"ĠWoolly":7437,"laying":7438,"Ġmooed":7439,"Ġaccomplishment":7440,"Ġsatisfied":7441,"ĠOliver":7442,"Ġpaddled":7443,"Ġopposite":7444,"Ġnearest":7445,"Ġbunnies":7446,"Ġevil":7447,"Ġsolution":7448,"Ġaudience":7449,"Ġoccas":7450,"Ġreversed":7451,"Ġunwra":7452,"Ġchampion":7453,"Ġunfamiliar":7454,"!âĢĻ":7455,"?!\"":7456,"Am":7457,"Aunt":7458,"Abby":7459,"Br":7460,"Bill":7461,"Bang":7462,"Days":7463,"Gu":7464,"Jessie":7465,"Liz":7466,"Nick":7467,"Op":7468,"Ri":7469,"Toby":7470,"aver":7471,"but":7472,"cher":7473,"son":7474,"woo":7475,"Ġouch":7476,"Ġty":7477,"ĠTank":7478,"Ġlump":7479,"Ġdump":7480,"erm":7481,"Ġwasting":7482,"amb":7483,"ĠHook":7484,"ighing":7485,"Ġinches":7486,"Ġplayroom":7487,"Ġwithin":7488,"Ġyelp":7489,"Ġrays":7490,"cky":7491,"Ġyounger":7492,"Ġonward":7493,"Ġonions":7494,"allowed":7495,"itted":7496,"Ġech":7497,"Ġease":7498,"ĠMichael":7499,"Ġforce":7500,"Ġshoo":7501,"aling":7502,"idey":7503,"ĠAcorn":7504,"Ġrefe":7505,"urr":7506,"ici":7507,"Ġspice":7508,"Ġscored":7509,"Ġbacks":7510,"owny":7511,"Ġbecomes":7512,"Ġlapt":7513,"ĠWelcome":7514,"ĠWendy":7515,"Ġnewfound":7516,"Ġcond":7517,"ĠFish":7518,"Ġflown":7519,"Ġflip":7520,"Ġflock":7521,"ably":7522,"Ġswap":7523,"Ġswallowed":7524,"ashes":7525,"Thomas":7526,"Ġchar":7527,"Ġchos":7528,"Ġdecision":7529,"ĠDusty":7530,"ĠCally":7531,"Ġtapping":7532,"bbit":7533,"Ġgardener":7534,"ĠKe":7535,"Ġparted":7536,"ĠPin":7537,"ĠRa":7538,"ĠRuff":7539,"Ġthrown":7540,"Ġwritten":7541,"ngela":7542,"Ġtops":7543,"ĠJackie":7544,"Ġbelts":7545,"Afterwards":7546,"Ġgrassho":7547,"Ġdripping":7548,"Ġdrifted":7549,"Ġexplorer":7550,"Ġrespected":7551,"Ġresults":7552,"Ġhealing":7553,"Ġtroubles":7554,"Ġrobin":7555,"Ġrobots":7556,"Ġcircus":7557,"Ġpeacefully":7558,"Ġbanged":7559,"Ġaction":7560,"Ġforgetting":7561,"Ġpancakes":7562,"Ġlifts":7563,"ĠBrad":7564,"Ġsharks":7565,"Ġsqueak":7566,"Ġpigeons":7567,"Ġfigured":7568,"Ġcoloured":7569,"Ġfriendships":7570,"ĠShow":7571,"Ġborrowed":7572,"Ġguardian":7573,"Ġautomobiles":7574,"Ġweekend":7575,"Ġsniffing":7576,"Ġrepeats":7577,"Ġrepeating":7578,"Ġspeeding":7579,"Ġtaped":7580,"ĠCla":7581,"Alright":7582,"Ġencourag":7583,"Ġneatly":7584,"Ġgoalie":7585,"Ġstrips":7586,"ĠYet":7587,"ĠYell":7588,"Ġraccoon":7589,"ĠCopper":7590,"Ġapologised":7591,"Ġtubes":7592,"Ġtrembled":7593,"Ġseasons":7594,"Ġpunishment":7595,"ĠIsabella":7596,"Ġfamiliar":7597,"Ġstroke":7598,"what":7599,"Ġswimsuit":7600,"ĠTwo":7601,"Ġefforts":7602,"Josh":7603,"lsa":7604,"ĠPoor":7605,"Ġpouted":7606,"People":7607,"ĠExcited":7608,"Ġcorre":7609,"Ġmischievous":7610,"Ġcashier":7611,"ĠSkelly":7612,"Ġinspired":7613,"Guess":7614,"Ribbit":7615,"Ġecho":7616,"Ġreferee":7617,"Ġlaptop":7618,"Ġchosen":7619,"Ġgrasshopper":7620,"Bee":7621,"Bessie":7622,"Barry":7623,"Hop":7624,"Jon":7625,"Jamie":7626,"Like":7627,"Soup":7628,"Try":7629,"Zara":7630,"cope":7631,"form":7632,"hive":7633,"hog":7634,"ji":7635,"match":7636,"mates":7637,"ollen":7638,"rily":7639,"rth":7640,"sa":7641,"the":7642,"Ġ2":7643,"Ġaim":7644,"Ġbully":7645,"Ġtot":7646,"Ġhoo":7647,"Ġwaking":7648,"Ġlan":7649,"Ġlent":7650,"Ġlamb":7651,"Ġheight":7652,"Ġnapped":7653,"imm":7654,"atur":7655,"ening":7656,"igning":7657,"Ġplot":7658,"vers":7659,"rier":7660,"rick":7661,"Ġplayhouse":7662,"Ġrust":7663,"ĠTime":7664,"Ġstitches":7665,"ĠLion":7666,"ĠLuckily":7667,"Ġweeds":7668,"Ġweighing":7669,"ĠBi":7670,"sess":7671,"espite":7672,"Ġshady":7673,"Ġsmashed":7674,"elie":7675,"Ġwhimp":7676,"ĠApp":7677,"ĠAbbie":7678,"Ġrect":7679,"Ġscen":7680,"opes":7681,"ĠWilly":7682,"ĠWoof":7683,"Ġcoach":7684,"Ġcosy":7685,"ĠFork":7686,"ĠJay":7687,"Ġswollen":7688,"Ġwilling":7689,"Ġgrabbing":7690,"Ġneedles":7691,"ĠCD":7692,"Ġcleaner":7693,"ĠPill":7694,"ĠPizza":7695,"ĠPurr":7696,"Ġcaw":7697,"ĠRia":7698,"Ġwrink":7699,"acles":7700,"Ġsandpit":7701,"Ġcons":7702,"Ġdrawn":7703,"Ġdresser":7704,"Ġsmelling":7705,"Ġwinners":7706,"Ġbeehive":7707,"Ġpatches":7708,"Ġqueens":7709,"Ġsecure":7710,"ĠCha":7711,"ĠChr":7712,"armer":7713,"Ġpurpose":7714,"ĠBloom":7715,"Ġjoyful":7716,"Ġarrives":7717,"Ġshaped":7718,"Ġwrapping":7719,"Ġspoonful":7720,"Ġbellies":7721,"Ġmoonlight":7722,"Ġteapot":7723,"Ġcrossing":7724,"ĠStret":7725,"Ġpackages":7726,"Ġfooled":7727,"ĠAlthough":7728,"Ġguessing":7729,"Ġcracker":7730,"Ġlizards":7731,"Ġrats":7732,"Ġmiller":7733,"Ġspills":7734,"Ġsniffs":7735,"Ġlibrarian":7736,"Ġlowered":7737,"Ġknots":7738,"Ġdesigns":7739,"Ġhaircuts":7740,"ĠCloud":7741,"Ġenthusiasm":7742,"Ġpokes":7743,"Ġlanguages":7744,"Ġhedgehog":7745,"Ġbreathing":7746,"ĠSteppy":7747,"Ġgroaned":7748,"Ġinvitations":7749,"ĠIsn":7750,"Ġbothered":7751,"Ġbothering":7752,"ĠSmoke":7753,"Ġpurrs":7754,"ĠKayla":7755,"Ġmesses":7756,"Ġbehavior":7757,"ĠPuppy":7758,"Ġconnected":7759,"Ġbeginning":7760,"Ġthorns":7761,"Ġbruises":7762,"Coco":7763,"Ġnuzzled":7764,"ĠMamma":7765,"Ġcautiously":7766,"Ġdisobey":7767,"Ġsensation":7768,"Ġtiptoed":7769,"Ġspices":7770,"ĠClaire":7771,"ĠYellow":7772,"rthur":7773,"Ġlantern":7774,"ĠForky":7775,"By":7776,"Brian":7777,"Bounce":7778,"Pip":7779,"Pinky":7780,"Ray":7781,"Zip":7782,"ailey":7783,"ba":7784,"ez":7785,"eel":7786,"fus":7787,"iving":7788,"ibbles":7789,"iky":7790,"rig":7791,"tock":7792,"yes":7793,"zoom":7794,"Ġill":7795,"Ġtum":7796,"Ġtying":7797,"Ġtumbled":7798,"Ġwider":7799,"Ġbom":7800,"Ġbitten":7801,"ĠTake":7802,"ĠTree":7803,"ĠTiger":7804,"ĠTidy":7805,"initely":7806,"Ġwaded":7807,"Ġdip":7808,"Ġdaring":7809,"Ġcoug":7810,"Ġpon":7811,"immer":7812,"Ġsav":7813,"iddy":7814,"Ġgest":7815,"anet":7816,"anced":7817,"ley":7818,"orter":7819,"orking":7820,"Ġinj":7821,"rie":7822,"river":7823,"Ġbeaver":7824,"ppies":7825,"ldy":7826,"Ġwept":7827,"Ġnoticing":7828,"ĠBumpy":7829,"seed":7830,"ĠMan":7831,"ĠMop":7832,"ĠMight":7833,"ĠMag":7834,"ĠMush":7835,"Ġmomma":7836,"Ġkings":7837,"Ġbirdseed":7838,"Ġwhoosh":7839,"ĠAngela":7840,"illed":7841,"urrender":7842,"ulf":7843,"Ġmanners":7844,"Ġclicked":7845,"Ġclues":7846,"Ġscurry":7847,"Ġmeals":7848,"Ġlaces":7849,"Ġgoodby":7850,"ĠFire":7851,"ĠFarmer":7852,"ĠJump":7853,"ĠJem":7854,"Ġblast":7855,"Ġchanges":7856,"Ġcares":7857,"Ġwaterfall":7858,"ĠElsa":7859,"Ġmoons":7860,"Ġslapping":7861,"Which":7862,"ĠComet":7863,"Ġfocus":7864,"Ġdoorway":7865,"Ġcheaper":7866,"Ġglared":7867,"izon":7868,"Ġsquaw":7869,"that":7870,"Ġdeed":7871,"beep":7872,"ĠRain":7873,"ĠRich":7874,"ĠRachel":7875,"ears":7876,"Ġstorekeeper":7877,"Ġhandsome":7878,"Ġcraft":7879,"Ġmeaning":7880,"Ġrealizing":7881,"ĠDoll":7882,"Ġconvin":7883,"Ġmonths":7884,"Ġbrightest":7885,"Ġworrying":7886,"Ġdances":7887,"afy":7888,"aterpillar":7889,"ĠOink":7890,"ĠOkay":7891,"Ġfills":7892,"Ġjobs":7893,"Ġcowb":7894,"Ġshops":7895,"ĠChirp":7896,"armen":7897,"Ġmints":7898,"Ġbelongings":7899,"Ġcreativ":7900,"Ġmarker":7901,"Ġprobably":7902,"Ġhorizon":7903,"ĠNobody":7904,"ĠNibbles":7905,"Ġserv":7906,"ertain":7907,"ĠSpoon":7908,"ĠSpidey":7909,"Ġminding":7910,"Ġlarger":7911,"Ġspringing":7912,"Ġwisely":7913,"Ġgiggles":7914,"Ġdestroying":7915,"Ġrelaxing":7916,"Ġstamped":7917,"Ġsweep":7918,"Ġcrackers":7919,"Ġgems":7920,"Ġsniffled":7921,"Ġedges":7922,"Ġstreamers":7923,"Ġaeroplanes":7924,"Ġencount":7925,"Ġlabels":7926,"Ġmotorcycles":7927,"ĠClimb":7928,"Ġscrews":7929,"Ġexercises":7930,"Ġstomp":7931,"ĠJody":7932,"Ġdisplayed":7933,"ĠDaniel":7934,"Ġpinching":7935,"Ġfilms":7936,"Sharing":7937,"Ġbeeped":7938,"ĠRufus":7939,"ĠCocoa":7940,"Ġmassages":7941,"ĠFlame":7942,"ĠFlora":7943,"Ġdiscussed":7944,"ĠMeowny":7945,"ĠUniversity":7946,"Ġuniforms":7947,"Ġscratching":7948,"Freddy":7949,"ĠLeafy":7950,"Ġencouragement":7951,"Ġsuffering":7952,"Ġwobble":7953,"ĠMelissa":7954,"ĠFrankie":7955,"Ġadmiration":7956,"Ġpeeled":7957,"Ġrespond":7958,"ĠLouise":7959,"Ġactivity":7960,"ĠCrabby":7961,"Ġsweaters":7962,"Ġinsisting":7963,"ĠGranny":7964,"annah":7965,"Marie":7966,"Ġcentre":7967,"Ġcenter":7968,"Ġgasps":7969,"ĠMixy":7970,"ĠBooks":7971,"Ġinstruments":7972,"Ġpossess":7973,"ĠCroco":7974,"Ġdefinitely":7975,"Ġencouraging":7976,"Ġcorrectly":7977,"Ġrectangle":7978,"ezi":7979,"Ġtummies":7980,"Ġbomb":7981,"Ġponies":7982,"ĠMighty":7983,"ĠMushroom":7984,"Ġgoodbyes":7985,"Ġcreativity":7986,",'":7987,"Bop":7988,"Cra":7989,"Dear":7990,"Deal":7991,"Frank":7992,"Jolly":7993,"Olive":7994,"Pr":7995,"Papa":7996,"RR":7997,"Rock":7998,"Slow":7999,"Tilly":8000,"Want":8001,"ais":8002,"act":8003,"bi":8004,"bro":8005,"bage":8006,"cused":8007,"driver":8008,"ibby":8009,"yl":8010,"Ġtuck":8011,"Ġties":8012,"Ġais":8013,"Ġwig":8014,"Ġtoad":8015,"Ġfu":8016,"Ġfaded":8017,"ĠToy":8018,"ĠTato":8019,"iter":8020,"Ġdizz":8021,"Ġpuff":8022,"aya":8023,"Ġmitt":8024,"erk":8025,"ering":8026,"erious":8027,"omp":8028,"Ġnur":8029,"Ġnast":8030,"arty":8031,"onse":8032,"onna":8033,"Ġgonna":8034,"atty":8035,"ĠSk":8036,"ĠSatur":8037,"anwh":8038,"ending":8039,"irls":8040,"Ġplug":8041,"Ġbeast":8042,"Only":8043,"Ġrotten":8044,"exi":8045,"Ġhissing":8046,"Ġstun":8047,"Ġstall":8048,"Ġstings":8049,"Ġstacked":8050,"ntil":8051,"stalk":8052,"ĠLuc":8053,"ĠLauren":8054,"ĠBad":8055,"ĠBucky":8056,"ĠMic":8057,"Ġshall":8058,"Ġbol":8059,"Ġboards":8060,"Ġnect":8061,"Ġwhales":8062,"ĠAnt":8063,"ĠArm":8064,"Ġreapp":8065,"Ġrewards":8066,"Ġseals":8067,"icip":8068,"Ġrods":8069,"Ġaren":8070,"ums":8071,"Ġsadder":8072,"Ġclue":8073,"hings":8074,"Ġmemb":8075,"ongr":8076,"ssy":8077,"Ġthoughts":8078,"retty":8079,"Ġblocked":8080,"ushing":8081,"apers":8082,"apaya":8083,"Ġintrig":8084,"urple":8085,"antha":8086,"ĠEddie":8087,"Ġrunner":8088,"Ġtoward":8089,"ĠCross":8090,"ĠCici":8091,"Ġcleared":8092,"Ġtapped":8093,"Ġsnorted":8094,"Ġdangers":8095,"Ġbubb":8096,"Ġbudge":8097,"Ġglitt":8098,"Ġmagician":8099,"ĠKelly":8100,"ĠPl":8101,"Ġbraver":8102,"Ġcafe":8103,"Ġbravest":8104,"ĠRoy":8105,"ĠRalph":8106,"Ġwriter":8107,"Ġfloats":8108,"acing":8109,"Ġcutter":8110,"Ġconcer":8111,"ĠGiant":8112,"Ġowners":8113,"Ġbeloved":8114,"Ġraces":8115,"Ġgrassy":8116,"Ġfarmers":8117,"boat":8118,"Ġanticip":8119,"ĠOld":8120,"ĠOuch":8121,"Instead":8122,"Ġthroughout":8123,"Ġpens":8124,"Ġpennies":8125,"Ġbits":8126,"Ġsets":8127,"ounced":8128,"Ġcreations":8129,"Ġpolitely":8130,"Ġvisits":8131,"Ġvisitor":8132,"Ġbathed":8133,"Ġstreets":8134,"Behind":8135,"ophia":8136,"ĠNavy":8137,"ĠNumber":8138,"Ġdriveway":8139,"Ġacts":8140,"ĠSpinny":8141,"Ġpours":8142,"Ġpanicked":8143,"Ġstirs":8144,"Ġreturning":8145,"ĠStan":8146,"Ġclassmates":8147,"Ġpays":8148,"Ġgenie":8149,"inald":8150,"Ġbeanstalk":8151,"Ġpresented":8152,"Ġcops":8153,"guess":8154,"However":8155,"ĠUntil":8156,"ĠShampoo":8157,"Ġgarbage":8158,"keepers":8159,"Ġfishermen":8160,"Ġhamm":8161,"Ġpreparing":8162,"Ġscrewdriver":8163,"Ġmayor":8164,"Albert":8165,"ĠJoan":8166,"Ġvests":8167,"Ġobserving":8168,"years":8169,"ĠYog":8170,"Ġvehicles":8171,"Ġdelayed":8172,"Ġaware":8173,"ĠFlap":8174,"ĠFlappy":8175,"Quick":8176,"Nothing":8177,"ĠUni":8178,"Ġdemanding":8179,"Ġallowing":8180,"Ġdifferences":8181,"ĠLeopard":8182,"Birdy":8183,"Ġflaps":8184,"Ġsimply":8185,"Ġtwinkle":8186,"Ġsprinkled":8187,"udrey":8188,"Ġresponse":8189,"Ġseagulls":8190,"Ġhesitant":8191}